unsigned char converted_model_tflite[] = {
  0x1c, 0x00, 0x00, 0x00, 0x54, 0x46, 0x4c, 0x33, 0x14, 0x00, 0x20, 0x00,
  0x1c, 0x00, 0x18, 0x00, 0x14, 0x00, 0x10, 0x00, 0x0c, 0x00, 0x00, 0x00,
  0x08, 0x00, 0x04, 0x00, 0x14, 0x00, 0x00, 0x00, 0x1c, 0x00, 0x00, 0x00,
  0x90, 0x00, 0x00, 0x00, 0x10, 0x01, 0x00, 0x00, 0xf4, 0x1e, 0x00, 0x00,
  0x04, 0x1f, 0x00, 0x00, 0x98, 0x45, 0x00, 0x00, 0x03, 0x00, 0x00, 0x00,
  0x01, 0x00, 0x00, 0x00, 0x04, 0x00, 0x00, 0x00, 0xa2, 0xe0, 0xff, 0xff,
  0x0c, 0x00, 0x00, 0x00, 0x1c, 0x00, 0x00, 0x00, 0x3c, 0x00, 0x00, 0x00,
  0x0f, 0x00, 0x00, 0x00, 0x73, 0x65, 0x72, 0x76, 0x69, 0x6e, 0x67, 0x5f,
  0x64, 0x65, 0x66, 0x61, 0x75, 0x6c, 0x74, 0x00, 0x01, 0x00, 0x00, 0x00,
  0x04, 0x00, 0x00, 0x00, 0x64, 0xff, 0xff, 0xff, 0x1d, 0x00, 0x00, 0x00,
  0x04, 0x00, 0x00, 0x00, 0x08, 0x00, 0x00, 0x00, 0x6f, 0x75, 0x74, 0x70,
  0x75, 0x74, 0x5f, 0x30, 0x00, 0x00, 0x00, 0x00, 0x01, 0x00, 0x00, 0x00,
  0x04, 0x00, 0x00, 0x00, 0x92, 0xe1, 0xff, 0xff, 0x04, 0x00, 0x00, 0x00,
  0x10, 0x00, 0x00, 0x00, 0x6b, 0x65, 0x72, 0x61, 0x73, 0x5f, 0x74, 0x65,
  0x6e, 0x73, 0x6f, 0x72, 0x5f, 0x31, 0x33, 0x32, 0x00, 0x00, 0x00, 0x00,
  0x03, 0x00, 0x00, 0x00, 0x5c, 0x00, 0x00, 0x00, 0x2c, 0x00, 0x00, 0x00,
  0x04, 0x00, 0x00, 0x00, 0xb8, 0xff, 0xff, 0xff, 0x21, 0x00, 0x00, 0x00,
  0x04, 0x00, 0x00, 0x00, 0x13, 0x00, 0x00, 0x00, 0x43, 0x4f, 0x4e, 0x56,
  0x45, 0x52, 0x53, 0x49, 0x4f, 0x4e, 0x5f, 0x4d, 0x45, 0x54, 0x41, 0x44,
  0x41, 0x54, 0x41, 0x00, 0xdc, 0xff, 0xff, 0xff, 0x20, 0x00, 0x00, 0x00,
  0x04, 0x00, 0x00, 0x00, 0x13, 0x00, 0x00, 0x00, 0x6d, 0x69, 0x6e, 0x5f,
  0x72, 0x75, 0x6e, 0x74, 0x69, 0x6d, 0x65, 0x5f, 0x76, 0x65, 0x72, 0x73,
  0x69, 0x6f, 0x6e, 0x00, 0x08, 0x00, 0x0c, 0x00, 0x08, 0x00, 0x04, 0x00,
  0x08, 0x00, 0x00, 0x00, 0x1f, 0x00, 0x00, 0x00, 0x04, 0x00, 0x00, 0x00,
  0x13, 0x00, 0x00, 0x00, 0x6d, 0x69, 0x6e, 0x5f, 0x72, 0x75, 0x6e, 0x74,
  0x69, 0x6d, 0x65, 0x5f, 0x76, 0x65, 0x72, 0x73, 0x69, 0x6f, 0x6e, 0x00,
  0x22, 0x00, 0x00, 0x00, 0xe0, 0x1d, 0x00, 0x00, 0xd8, 0x1d, 0x00, 0x00,
  0xc4, 0x1d, 0x00, 0x00, 0x9c, 0x1d, 0x00, 0x00, 0x4c, 0x1d, 0x00, 0x00,
  0x3c, 0x1b, 0x00, 0x00, 0xac, 0x1a, 0x00, 0x00, 0x9c, 0x16, 0x00, 0x00,
  0x0c, 0x16, 0x00, 0x00, 0xfc, 0x11, 0x00, 0x00, 0x6c, 0x11, 0x00, 0x00,
  0x5c, 0x0d, 0x00, 0x00, 0xcc, 0x0c, 0x00, 0x00, 0xbc, 0x08, 0x00, 0x00,
  0x2c, 0x08, 0x00, 0x00, 0x1c, 0x04, 0x00, 0x00, 0x8c, 0x03, 0x00, 0x00,
  0x7c, 0x01, 0x00, 0x00, 0x2c, 0x01, 0x00, 0x00, 0x0c, 0x01, 0x00, 0x00,
  0x04, 0x01, 0x00, 0x00, 0xfc, 0x00, 0x00, 0x00, 0xf4, 0x00, 0x00, 0x00,
  0xec, 0x00, 0x00, 0x00, 0xe4, 0x00, 0x00, 0x00, 0xdc, 0x00, 0x00, 0x00,
  0xd4, 0x00, 0x00, 0x00, 0xcc, 0x00, 0x00, 0x00, 0xc4, 0x00, 0x00, 0x00,
  0xbc, 0x00, 0x00, 0x00, 0xb4, 0x00, 0x00, 0x00, 0x94, 0x00, 0x00, 0x00,
  0x74, 0x00, 0x00, 0x00, 0x04, 0x00, 0x00, 0x00, 0xc2, 0xe2, 0xff, 0xff,
  0x04, 0x00, 0x00, 0x00, 0x60, 0x00, 0x00, 0x00, 0x0c, 0x00, 0x00, 0x00,
  0x08, 0x00, 0x0e, 0x00, 0x08, 0x00, 0x04, 0x00, 0x08, 0x00, 0x00, 0x00,
  0x10, 0x00, 0x00, 0x00, 0x28, 0x00, 0x00, 0x00, 0x00, 0x00, 0x06, 0x00,
  0x08, 0x00, 0x04, 0x00, 0x06, 0x00, 0x00, 0x00, 0x04, 0x00, 0x00, 0x00,
  0x01, 0x00, 0x00, 0x00, 0xeb, 0x03, 0x00, 0x00, 0x0c, 0x00, 0x18, 0x00,
  0x14, 0x00, 0x10, 0x00, 0x0c, 0x00, 0x04, 0x00, 0x0c, 0x00, 0x00, 0x00,
  0xf9, 0x56, 0xf2, 0x97, 0xfa, 0x12, 0x7d, 0xa2, 0x02, 0x00, 0x00, 0x00,
  0x02, 0x00, 0x00, 0x00, 0x04, 0x00, 0x00, 0x00, 0x06, 0x00, 0x00, 0x00,
  0x32, 0x2e, 0x31, 0x39, 0x2e, 0x30, 0x00, 0x00, 0x2e, 0xe3, 0xff, 0xff,
  0x04, 0x00, 0x00, 0x00, 0x10, 0x00, 0x00, 0x00, 0x00, 0x00, 0x00, 0x00,
  0x00, 0x00, 0x00, 0x00, 0x00, 0x00, 0x00, 0x00, 0x00, 0x00, 0x00, 0x00,
  0x4a, 0xe3, 0xff, 0xff, 0x04, 0x00, 0x00, 0x00, 0x10, 0x00, 0x00, 0x00,
  0x31, 0x2e, 0x31, 0x34, 0x2e, 0x30, 0x00, 0x00, 0x00, 0x00, 0x00, 0x00,
  0x00, 0x00, 0x00, 0x00, 0xd8, 0xbc, 0xff, 0xff, 0xdc, 0xbc, 0xff, 0xff,
  0xe0, 0xbc, 0xff, 0xff, 0xe4, 0xbc, 0xff, 0xff, 0xe8, 0xbc, 0xff, 0xff,
  0xec, 0xbc, 0xff, 0xff, 0xf0, 0xbc, 0xff, 0xff, 0xf4, 0xbc, 0xff, 0xff,
  0xf8, 0xbc, 0xff, 0xff, 0xfc, 0xbc, 0xff, 0xff, 0x00, 0xbd, 0xff, 0xff,
  0x92, 0xe3, 0xff, 0xff, 0x04, 0x00, 0x00, 0x00, 0x10, 0x00, 0x00, 0x00,
  0x7f, 0x7f, 0x7f, 0x81, 0x81, 0x7f, 0x81, 0x81, 0x7f, 0x81, 0x81, 0x7f,
  0x7f, 0x7f, 0x81, 0x7f, 0xae, 0xe3, 0xff, 0xff, 0x04, 0x00, 0x00, 0x00,
  0x40, 0x00, 0x00, 0x00, 0x59, 0x73, 0x00, 0x00, 0xc4, 0xd5, 0xff, 0xff,
  0x91, 0x92, 0x00, 0x00, 0x00, 0x00, 0x00, 0x00, 0x00, 0x00, 0x00, 0x00,
  0x1b, 0xd8, 0x01, 0x00, 0x00, 0x00, 0x00, 0x00, 0x00, 0x00, 0x00, 0x00,
  0x79, 0x0a, 0x01, 0x00, 0x00, 0x00, 0x00, 0x00, 0x00, 0x00, 0x00, 0x00,
  0xb5, 0x0c, 0x00, 0x00, 0x44, 0xfb, 0xff, 0xff, 0xa1, 0x96, 0x01, 0x00,
  0x00, 0x00, 0x00, 0x00, 0x81, 0xd3, 0xff, 0xff, 0xfa, 0xe3, 0xff, 0xff,
  0x04, 0x00, 0x00, 0x00, 0x00, 0x02, 0x00, 0x00, 0x0f, 0x66, 0x19, 0x39,
  0x20, 0x81, 0x7a, 0x00, 0xa4, 0xb2, 0xb2, 0x73, 0x56, 0x98, 0x38, 0x32,
  0xca, 0xc4, 0x81, 0xc7, 0x8e, 0x15, 0x67, 0x3f, 0x6b, 0xf4, 0xa3, 0x1f,
  0x0e, 0x65, 0x03, 0x07, 0xab, 0x88, 0x3a, 0x2f, 0x90, 0x7f, 0x58, 0xd1,
  0xff, 0x65, 0x09, 0xba, 0x40, 0xe6, 0x6d, 0xad, 0xc0, 0x36, 0x04, 0xa0,
  0xa4, 0x53, 0x00, 0x32, 0x15, 0x2d, 0x96, 0xb5, 0x81, 0x37, 0x5e, 0xd5,
  0x04, 0xa3, 0xdf, 0xa0, 0xaa, 0x2f, 0x7f, 0xd6, 0x99, 0x42, 0xeb, 0xd2,
  0x85, 0xad, 0x5d, 0x82, 0xaf, 0x94, 0x6c, 0xa5, 0x41, 0x19, 0x7f, 0xc8,
  0x91, 0xbe, 0x75, 0x63, 0x2f, 0x2e, 0x03, 0x32, 0x7f, 0x92, 0x3b, 0xd0,
  0x71, 0x12, 0x98, 0xd1, 0x61, 0x4f, 0x53, 0x38, 0x16, 0xf4, 0x00, 0xbf,
  0x70, 0xc4, 0x81, 0xcb, 0x4b, 0x13, 0x36, 0x30, 0x3e, 0x19, 0x97, 0x1c,
  0x41, 0xfe, 0x5c, 0x35, 0x82, 0xca, 0xbf, 0x66, 0x05, 0x86, 0xbe, 0xba,
  0x7a, 0x8d, 0xc0, 0x7f, 0xc9, 0x04, 0x26, 0x7e, 0xee, 0x2e, 0x9c, 0x66,
  0x42, 0x96, 0xde, 0xee, 0x0a, 0x4f, 0xde, 0x81, 0x34, 0x62, 0xf7, 0x2a,
  0xad, 0x7f, 0xd0, 0xf1, 0x26, 0xfe, 0xf3, 0x8b, 0x4f, 0x90, 0x7e, 0x69,
  0xd9, 0x52, 0xe3, 0x89, 0xea, 0x4b, 0x11, 0xef, 0x4f, 0xc0, 0xfa, 0x59,
  0xbe, 0xd0, 0x7e, 0xff, 0x37, 0xa7, 0xd2, 0x7f, 0x39, 0x05, 0x7b, 0xc9,
  0xa7, 0x9b, 0x5c, 0xc3, 0x96, 0xff, 0x8a, 0x40, 0xd2, 0xfe, 0x8e, 0x7f,
  0x8a, 0x54, 0x9c, 0x2d, 0xae, 0x0a, 0x2b, 0x04, 0x8c, 0xfb, 0x99, 0xda,
  0x81, 0x3b, 0x0b, 0x75, 0x7f, 0xf1, 0xb0, 0xf4, 0x51, 0xe0, 0xaa, 0xc6,
  0x4a, 0xe9, 0x42, 0x8b, 0x06, 0x8c, 0x85, 0xfe, 0x0b, 0x23, 0x39, 0xa8,
  0x52, 0xac, 0x6a, 0x38, 0xec, 0x44, 0x6b, 0x7a, 0x15, 0x7f, 0xf9, 0x18,
  0x40, 0x2a, 0x1f, 0xb8, 0xb8, 0x81, 0x2e, 0xfa, 0x01, 0x53, 0x06, 0x4e,
  0x4d, 0x63, 0xc8, 0x3a, 0xb4, 0x3f, 0x37, 0x06, 0xcb, 0x81, 0xf9, 0xee,
  0x13, 0x25, 0x16, 0x43, 0x2a, 0x3b, 0xd8, 0x0f, 0x95, 0x81, 0x1c, 0x01,
  0x9c, 0x94, 0x1d, 0xe4, 0x62, 0x83, 0x06, 0x85, 0xa0, 0x24, 0xe1, 0xe4,
  0xd0, 0x3c, 0x1d, 0xf2, 0x02, 0xe6, 0x4e, 0x6e, 0xa1, 0xb7, 0x95, 0x75,
  0xe8, 0xe9, 0x81, 0x82, 0x06, 0x55, 0x14, 0x75, 0x34, 0x81, 0x6b, 0xb1,
  0xcd, 0xb4, 0x1a, 0xdb, 0x93, 0xf0, 0x58, 0x7e, 0xb8, 0x11, 0x2f, 0x56,
  0xac, 0xc7, 0xb1, 0xde, 0x81, 0xff, 0xfa, 0x17, 0x71, 0x4e, 0x49, 0x43,
  0x4e, 0xb8, 0x16, 0xc1, 0xa5, 0xc9, 0x7f, 0x5f, 0xe9, 0xc3, 0x4a, 0x93,
  0x86, 0x85, 0x87, 0x47, 0xf4, 0xe7, 0x27, 0xe3, 0x95, 0x7f, 0xa1, 0xbb,
  0x7e, 0xb5, 0x56, 0x8b, 0x82, 0x7a, 0x6e, 0x0b, 0x43, 0x8a, 0x7f, 0x05,
  0xd1, 0xd2, 0x5a, 0xac, 0x65, 0xa6, 0x4f, 0xd7, 0x33, 0xb6, 0xb0, 0x8b,
  0x26, 0x63, 0x18, 0xcf, 0x87, 0xa9, 0x3b, 0x0e, 0xce, 0x68, 0x2a, 0xc2,
  0x7f, 0xe5, 0x11, 0x7f, 0x18, 0x6e, 0x2f, 0xfd, 0xa6, 0x0a, 0x94, 0x19,
  0x0a, 0xaf, 0xe2, 0x8e, 0x8a, 0x8d, 0x7f, 0xf0, 0xdf, 0x59, 0x2d, 0x13,
  0x97, 0xc6, 0x7f, 0x35, 0x92, 0x4b, 0x97, 0x08, 0x5d, 0x65, 0x9d, 0xd0,
  0xcd, 0x44, 0x22, 0x1d, 0x24, 0xcf, 0x9d, 0xc4, 0xfd, 0xa8, 0x76, 0xee,
  0x50, 0x11, 0xe7, 0x7f, 0x5b, 0xb5, 0xb7, 0xb3, 0x74, 0x3a, 0x00, 0xf8,
  0xdb, 0xb9, 0x25, 0xf7, 0x68, 0xe8, 0x6f, 0x7f, 0xa2, 0x98, 0x6a, 0x1b,
  0xe6, 0xcc, 0x4e, 0x39, 0xaf, 0x7f, 0x08, 0xa8, 0x13, 0x9b, 0x22, 0xc6,
  0x32, 0xb7, 0x68, 0xd5, 0x25, 0x76, 0x74, 0x9e, 0x08, 0x69, 0xbe, 0x44,
  0x81, 0xe2, 0x50, 0x67, 0x06, 0xe6, 0xff, 0xff, 0x04, 0x00, 0x00, 0x00,
  0x80, 0x00, 0x00, 0x00, 0x74, 0x88, 0xff, 0xff, 0x2a, 0xee, 0xff, 0xff,
  0x30, 0x51, 0x00, 0x00, 0xbf, 0xd1, 0xff, 0xff, 0x00, 0x00, 0x00, 0x00,
  0x61, 0x65, 0x00, 0x00, 0x17, 0xc6, 0x00, 0x00, 0x70, 0x7e, 0x00, 0x00,
  0x00, 0x00, 0x00, 0x00, 0x18, 0x23, 0x00, 0x00, 0x9c, 0xa7, 0xff, 0xff,
  0x9c, 0xed, 0xff, 0xff, 0x38, 0xc7, 0xff, 0xff, 0x00, 0x00, 0x00, 0x00,
  0xf6, 0xfb, 0xff, 0xff, 0xb2, 0xe4, 0x00, 0x00, 0x42, 0x22, 0x00, 0x00,
  0xe6, 0x88, 0xff, 0xff, 0x00, 0x00, 0x00, 0x00, 0x05, 0x54, 0x00, 0x00,
  0x00, 0xfc, 0xff, 0xff, 0x67, 0x9a, 0x00, 0x00, 0xd3, 0xfb, 0xff, 0xff,
  0x59, 0x57, 0x00, 0x00, 0x26, 0x82, 0x00, 0x00, 0x1a, 0x40, 0xff, 0xff,
  0x49, 0xeb, 0xff, 0xff, 0xfe, 0xeb, 0xff, 0xff, 0xfb, 0x95, 0xff, 0xff,
  0xa0, 0x90, 0xff, 0xff, 0x00, 0x00, 0x00, 0x00, 0xe0, 0x85, 0x00, 0x00,
  0x92, 0xe6, 0xff, 0xff, 0x04, 0x00, 0x00, 0x00, 0x00, 0x04, 0x00, 0x00,
  0x10, 0xf9, 0x9e, 0x03, 0xe1, 0x1f, 0x10, 0xc8, 0x45, 0xe5, 0x35, 0x1e,
  0xd9, 0xec, 0x31, 0xf6, 0x33, 0x10, 0x42, 0x11, 0x01, 0xd3, 0xf5, 0xfb,
  0xfd, 0x09, 0xfc, 0x10, 0xe4, 0x15, 0x17, 0x81, 0xa3, 0x3a, 0x1c, 0x32,
  0x50, 0x4a, 0x5f, 0x0f, 0x2d, 0x67, 0x96, 0xc4, 0xc3, 0x48, 0xf6, 0xc7,
  0x74, 0x54, 0x2f, 0x8f, 0xa1, 0x06, 0xdb, 0xee, 0x2d, 0x11, 0x59, 0x7f,
  0x7b, 0xb2, 0xe2, 0x67, 0xfd, 0xc3, 0xac, 0x0f, 0x1e, 0x2b, 0x0f, 0xf6,
  0xd0, 0xd7, 0x10, 0xe4, 0x20, 0x43, 0xb7, 0x3d, 0xd2, 0xd3, 0xf1, 0xdb,
  0x49, 0x26, 0xce, 0x91, 0x08, 0xd9, 0x44, 0xe7, 0x0e, 0xf8, 0xd4, 0x7f,
  0xfb, 0xf2, 0x81, 0xfe, 0x0f, 0x42, 0xd9, 0x2a, 0x39, 0xd0, 0xf7, 0xff,
  0xb7, 0xb6, 0x14, 0x41, 0x1b, 0x23, 0xda, 0x01, 0x0c, 0x28, 0x48, 0xb2,
  0x4a, 0xe4, 0x19, 0xe5, 0xd4, 0xd5, 0xd8, 0x51, 0x32, 0xfd, 0x46, 0xd4,
  0xd1, 0x37, 0x24, 0x1b, 0xe5, 0x1f, 0xfa, 0xd2, 0xef, 0xf6, 0xfb, 0xea,
  0x3d, 0x35, 0x0a, 0x01, 0xf4, 0xc7, 0x3b, 0x40, 0x81, 0xce, 0x43, 0x2b,
  0xe6, 0xe7, 0x2d, 0xeb, 0x31, 0xd4, 0xa1, 0x1e, 0x3e, 0x09, 0x12, 0x3a,
  0xda, 0x1e, 0xb1, 0xfa, 0xb9, 0x03, 0xc8, 0x05, 0x09, 0xd3, 0x17, 0x12,
  0x28, 0xe9, 0xce, 0x8a, 0x7f, 0x31, 0xd9, 0xb9, 0xe2, 0xfe, 0x41, 0x48,
  0x2a, 0x37, 0x4a, 0xae, 0x53, 0x24, 0x17, 0xb5, 0x61, 0xfc, 0x04, 0x81,
  0xed, 0x55, 0x36, 0x0d, 0xbb, 0xb2, 0x1c, 0xe3, 0x36, 0xd7, 0x3c, 0x64,
  0x15, 0xce, 0x5e, 0xe5, 0x08, 0xe8, 0x4b, 0x79, 0x27, 0x59, 0xdd, 0xfc,
  0xba, 0x5d, 0xe5, 0x00, 0x3a, 0x40, 0x2b, 0xff, 0x49, 0xce, 0x66, 0x6e,
  0x8e, 0xda, 0xf9, 0xf7, 0x7b, 0xb8, 0x2b, 0xc2, 0xb8, 0x9e, 0x7f, 0xa1,
  0xc4, 0x8f, 0xe9, 0x42, 0x03, 0x54, 0xcd, 0xc5, 0xaa, 0xff, 0xaf, 0xb4,
  0x4f, 0x41, 0xed, 0x2b, 0x59, 0xd5, 0x40, 0x2e, 0x4b, 0x18, 0xd5, 0x05,
  0x33, 0x05, 0x04, 0x4b, 0x81, 0xe6, 0x12, 0x51, 0x4c, 0x2d, 0x01, 0x09,
  0x2b, 0x2c, 0x20, 0x02, 0xae, 0x13, 0x53, 0x96, 0x2d, 0xae, 0x10, 0xcb,
  0xd7, 0x55, 0xb1, 0x4e, 0x97, 0x25, 0x21, 0x81, 0x39, 0x09, 0xa1, 0x60,
  0x91, 0xb4, 0x1e, 0x22, 0x34, 0xc2, 0x0d, 0x97, 0x35, 0xd1, 0xab, 0xba,
  0xf1, 0xef, 0x53, 0x0b, 0x6b, 0x5d, 0x1d, 0xa6, 0x16, 0xaf, 0x07, 0x6b,
  0x0d, 0xa1, 0x54, 0x4f, 0x6e, 0xd3, 0x02, 0x81, 0x71, 0xe2, 0xb7, 0x1d,
  0xb4, 0xac, 0x53, 0xd5, 0xbb, 0x25, 0x96, 0xbc, 0xf9, 0xfd, 0xd9, 0x16,
  0x0f, 0xf9, 0xbf, 0xc5, 0x11, 0x49, 0xd7, 0x36, 0xff, 0xc8, 0xcb, 0xfa,
  0xca, 0xb5, 0xf1, 0xf6, 0x52, 0xf1, 0x09, 0x37, 0x24, 0xf4, 0x0c, 0x7f,
  0xfa, 0xa5, 0x63, 0x16, 0x25, 0x4d, 0x51, 0x9f, 0x74, 0x8a, 0x05, 0x75,
  0x8b, 0xda, 0x4f, 0x87, 0xff, 0x57, 0xa6, 0xe5, 0x70, 0x8e, 0x7f, 0x37,
  0xbf, 0xfc, 0x79, 0x8f, 0x8d, 0x0f, 0xcb, 0xec, 0x00, 0xc5, 0x7d, 0x43,
  0x9b, 0xd2, 0x20, 0xa0, 0xd0, 0x45, 0x53, 0xdb, 0x5e, 0x2f, 0x3a, 0x02,
  0xc5, 0x3d, 0x06, 0xd0, 0x44, 0xf1, 0x96, 0x5c, 0x7f, 0x10, 0xb1, 0xb7,
  0xb5, 0xaf, 0x66, 0xb9, 0x1b, 0xe3, 0x96, 0x5a, 0xd2, 0x89, 0x8a, 0xb3,
  0x37, 0x3c, 0x15, 0x15, 0x5e, 0x17, 0xa1, 0x71, 0xee, 0x99, 0x89, 0xdd,
  0xa0, 0xa7, 0xaa, 0x81, 0x8b, 0xff, 0x5a, 0xb1, 0x4b, 0xdf, 0x09, 0x61,
  0x2b, 0x41, 0x15, 0x09, 0xee, 0x81, 0xc8, 0xdd, 0xc5, 0x60, 0x4c, 0xcf,
  0x71, 0x3d, 0x90, 0xed, 0xb9, 0xd8, 0xb2, 0xcd, 0xb4, 0xad, 0x5d, 0x0e,
  0xbb, 0xf8, 0xa5, 0x5a, 0xce, 0x36, 0x12, 0x65, 0x50, 0xd0, 0x5e, 0x17,
  0xd1, 0x0f, 0xa0, 0x32, 0xe4, 0x81, 0x6b, 0xa2, 0x0c, 0x4a, 0x99, 0xea,
  0xa2, 0x6b, 0x6b, 0x59, 0xbb, 0x87, 0x9d, 0x75, 0xcb, 0xa2, 0xb3, 0x98,
  0x2b, 0xc3, 0x57, 0xdb, 0x81, 0x27, 0x28, 0x67, 0x62, 0xb8, 0xb6, 0xf1,
  0xbd, 0xd8, 0x2b, 0x1d, 0x5c, 0x0f, 0xc6, 0x90, 0x7f, 0xd1, 0xda, 0x43,
  0xf2, 0x36, 0x37, 0xd7, 0x0c, 0xdb, 0x48, 0x91, 0xe1, 0xa7, 0xa0, 0xe1,
  0x4d, 0xf6, 0x81, 0x15, 0xb3, 0x39, 0x3b, 0x9a, 0xbd, 0xe7, 0x52, 0x97,
  0x14, 0xe2, 0x0d, 0x38, 0xcf, 0xac, 0x1c, 0x4e, 0x2b, 0x05, 0x5f, 0xcc,
  0x99, 0xe3, 0xf5, 0x29, 0x1c, 0x9b, 0xc4, 0xb2, 0xf3, 0xd9, 0xef, 0x3f,
  0x5b, 0xd9, 0xd8, 0xf8, 0x22, 0x9d, 0x40, 0x58, 0xf2, 0x05, 0xbf, 0xb7,
  0xc0, 0x20, 0x60, 0xac, 0xc5, 0xa9, 0xc3, 0xb2, 0x00, 0xcb, 0x4b, 0x68,
  0x78, 0x81, 0xf4, 0x7b, 0xec, 0x81, 0x08, 0x92, 0x8f, 0xef, 0x20, 0x34,
  0x40, 0x1b, 0xc9, 0x83, 0xdc, 0x83, 0xed, 0xfa, 0xbc, 0xca, 0xcf, 0xd7,
  0x04, 0x7e, 0xcf, 0xe4, 0xbc, 0x1b, 0x77, 0xd8, 0xb2, 0xb7, 0x70, 0x9d,
  0x15, 0x4f, 0x66, 0xf9, 0x07, 0xc5, 0xe4, 0x5e, 0x18, 0x8a, 0xff, 0xaf,
  0xf0, 0x09, 0xac, 0x38, 0xb4, 0xae, 0x4b, 0xef, 0x49, 0x4c, 0xb1, 0x5e,
  0x0e, 0x81, 0xeb, 0xbf, 0xad, 0x8e, 0x01, 0x45, 0xf9, 0xbf, 0xea, 0xdb,
  0x58, 0xcd, 0x09, 0xbb, 0x30, 0xd5, 0x18, 0x57, 0xb3, 0xb2, 0xcf, 0x67,
  0xde, 0xdf, 0xef, 0xb8, 0x6d, 0xf5, 0x7f, 0x86, 0x8b, 0xa9, 0x43, 0xae,
  0x60, 0xec, 0xa6, 0xf9, 0xa7, 0x61, 0x81, 0xb9, 0xa4, 0x3e, 0x58, 0x4d,
  0xb8, 0x33, 0xc1, 0x3e, 0x28, 0x1c, 0xc6, 0x3b, 0x14, 0xf2, 0xb8, 0x27,
  0xbc, 0x4a, 0x22, 0x93, 0x12, 0xa4, 0x4c, 0x49, 0xc1, 0xed, 0xe7, 0xd9,
  0xa0, 0xbd, 0xcf, 0x33, 0x5a, 0x4c, 0x25, 0xd3, 0xf9, 0x5b, 0x42, 0xbf,
  0xa4, 0xde, 0x4d, 0x81, 0x82, 0x8f, 0x9f, 0x7c, 0x42, 0xa9, 0x13, 0xe0,
  0xb0, 0x3e, 0x90, 0x2b, 0x12, 0x28, 0x62, 0x23, 0x30, 0x60, 0x49, 0xf6,
  0xd4, 0xb8, 0x38, 0xeb, 0xc8, 0xfa, 0x0a, 0x81, 0x46, 0xc1, 0x1c, 0x0f,
  0xab, 0xf7, 0x56, 0xfd, 0xac, 0xbe, 0xe0, 0x7f, 0x48, 0xc3, 0x3b, 0x9c,
  0x0f, 0xab, 0xe8, 0xe1, 0xb4, 0xed, 0xcf, 0xf7, 0x81, 0xfb, 0x31, 0x68,
  0x4f, 0xb0, 0x63, 0xd5, 0x03, 0x91, 0xb6, 0xbb, 0xe0, 0x2c, 0xd2, 0x07,
  0x8d, 0x34, 0x2d, 0xe2, 0x6a, 0x19, 0x56, 0x68, 0xb4, 0x39, 0x64, 0x5c,
  0x0b, 0x46, 0x45, 0x36, 0xe2, 0x4c, 0x9a, 0x14, 0x4d, 0x09, 0x16, 0x69,
  0xd0, 0x53, 0x59, 0xc2, 0x0d, 0x19, 0x9d, 0x45, 0xe4, 0x0a, 0xa9, 0xfc,
  0xab, 0x10, 0x35, 0x3f, 0xfc, 0xe9, 0xf4, 0x81, 0xed, 0xdc, 0xb1, 0x21,
  0x4d, 0xe3, 0x47, 0x3c, 0xc0, 0xb2, 0x03, 0xa6, 0xcb, 0x35, 0x03, 0x27,
  0xdd, 0xf0, 0xba, 0x3c, 0xcc, 0xd0, 0x03, 0x86, 0x7f, 0xd7, 0x53, 0xb8,
  0x3a, 0x23, 0x0b, 0x24, 0xaf, 0xfd, 0xf4, 0x42, 0xf5, 0x19, 0xfd, 0xce,
  0xa2, 0x0f, 0xb6, 0x3d, 0x3a, 0x49, 0x4e, 0x2c, 0x5c, 0xd0, 0x4d, 0x2f,
  0xa7, 0x30, 0x2e, 0x81, 0xbb, 0xef, 0x3c, 0xc7, 0x1f, 0x1a, 0xad, 0xca,
  0x0b, 0x17, 0x41, 0xa1, 0x60, 0x42, 0xea, 0xb0, 0x4f, 0xe5, 0x9d, 0x63,
  0x35, 0x81, 0x85, 0x28, 0x79, 0x03, 0x46, 0x72, 0x59, 0x86, 0xc3, 0x39,
  0xd4, 0xd7, 0x3a, 0xf3, 0x1b, 0xa7, 0x9c, 0xc6, 0x2d, 0xd5, 0x7a, 0xc0,
  0x7a, 0x36, 0x1f, 0x0c, 0xa4, 0x7c, 0x79, 0xf9, 0x05, 0xbc, 0xd0, 0x81,
  0x22, 0x25, 0xd1, 0xdf, 0x60, 0xa4, 0xae, 0x99, 0x28, 0xd2, 0x85, 0x3e,
  0x85, 0xf9, 0x42, 0x18, 0x9e, 0xea, 0xff, 0xff, 0x04, 0x00, 0x00, 0x00,
  0x80, 0x00, 0x00, 0x00, 0xb0, 0x2f, 0x00, 0x00, 0x14, 0x85, 0x00, 0x00,
  0xa0, 0x4c, 0x00, 0x00, 0xbf, 0x5d, 0x00, 0x00, 0x52, 0xce, 0xff, 0xff,
  0xb0, 0x13, 0x00, 0x00, 0x79, 0x38, 0x00, 0x00, 0xc9, 0xf6, 0xff, 0xff,
  0xb3, 0xb0, 0xff, 0xff, 0x25, 0xec, 0xff, 0xff, 0x6d, 0xcd, 0x00, 0x00,
  0x1f, 0x30, 0x00, 0x00, 0x00, 0x00, 0x00, 0x00, 0x43, 0x30, 0x00, 0x00,
  0x00, 0x00, 0x00, 0x00, 0x3a, 0xe9, 0xff, 0xff, 0x00, 0x00, 0x00, 0x00,
  0x00, 0x00, 0x00, 0x00, 0x02, 0xd2, 0xff, 0xff, 0x74, 0xf1, 0xff, 0xff,
  0x00, 0x00, 0x00, 0x00, 0x45, 0x33, 0x00, 0x00, 0xc4, 0xfc, 0xff, 0xff,
  0x74, 0x76, 0x00, 0x00, 0x00, 0x00, 0x00, 0x00, 0xf8, 0x26, 0x00, 0x00,
  0x12, 0xc5, 0xff, 0xff, 0xd9, 0xa9, 0xff, 0xff, 0xb5, 0x4a, 0x00, 0x00,
  0xf5, 0x5f, 0x00, 0x00, 0x3a, 0x8e, 0xff, 0xff, 0xf6, 0xf7, 0xff, 0xff,
  0x2a, 0xeb, 0xff, 0xff, 0x04, 0x00, 0x00, 0x00, 0x00, 0x04, 0x00, 0x00,
  0x7f, 0x41, 0x0e, 0x50, 0x09, 0x9b, 0x32, 0xc8, 0xce, 0x07, 0x89, 0x7b,
  0x5e, 0xe9, 0x18, 0xcf, 0xa6, 0xad, 0xb8, 0xda, 0xc7, 0x81, 0x0d, 0xca,
  0x39, 0xca, 0xd0, 0x0e, 0x37, 0xaa, 0x84, 0xec, 0xe7, 0x14, 0x6b, 0xdc,
  0x3b, 0xb7, 0xdb, 0xb8, 0x39, 0x3d, 0x62, 0xbb, 0xb6, 0x32, 0x72, 0x40,
  0x04, 0x7f, 0x6f, 0x72, 0x76, 0xca, 0xf5, 0xa4, 0x9a, 0xe7, 0x2c, 0x43,
  0x1c, 0x87, 0x3a, 0x00, 0x0d, 0xeb, 0x9d, 0x9b, 0x9c, 0x98, 0x16, 0xe7,
  0xf5, 0xfd, 0x58, 0x8e, 0x41, 0xb6, 0xa8, 0xd6, 0x76, 0xdb, 0x11, 0x89,
  0x8d, 0x7f, 0xf9, 0xb1, 0xf1, 0x29, 0xab, 0x0c, 0x84, 0x54, 0x2f, 0x6c,
  0x22, 0xee, 0x01, 0x25, 0xc3, 0x0e, 0xd9, 0xc6, 0x24, 0x2a, 0xf9, 0xeb,
  0x0e, 0xc7, 0x22, 0xd9, 0xbe, 0x4b, 0x35, 0x16, 0xff, 0x28, 0x45, 0xfd,
  0xd0, 0x38, 0xcd, 0x07, 0x81, 0x22, 0x11, 0xb6, 0xb0, 0x92, 0xd7, 0x33,
  0xfc, 0x3a, 0x99, 0x91, 0x1a, 0xf1, 0xe6, 0xe7, 0x45, 0xbb, 0x14, 0x70,
  0xf6, 0xa2, 0xe1, 0x8d, 0x22, 0x8e, 0xad, 0xd3, 0x81, 0x66, 0x6e, 0x9d,
  0xb5, 0x76, 0x2f, 0xe9, 0xe2, 0x2e, 0x43, 0x2c, 0xe4, 0xca, 0x9e, 0x94,
  0x4b, 0x4a, 0x00, 0xb7, 0x8e, 0xb2, 0x29, 0x10, 0xac, 0x57, 0x3e, 0x4f,
  0xb6, 0x57, 0x9f, 0xdd, 0x91, 0xe8, 0xe0, 0x4f, 0x81, 0xae, 0x69, 0xd9,
  0xef, 0x44, 0xc5, 0xf7, 0x47, 0xf3, 0xa7, 0x07, 0x06, 0xb6, 0xb2, 0x5f,
  0xdd, 0xc1, 0x31, 0xe2, 0xae, 0xf1, 0xc2, 0xb9, 0xae, 0x8f, 0xf8, 0x1b,
  0x06, 0xd3, 0xcb, 0x29, 0x7f, 0x3d, 0x46, 0x1d, 0xde, 0x1d, 0x35, 0x39,
  0xdd, 0x44, 0xc0, 0x2a, 0x35, 0x20, 0x47, 0x7f, 0xef, 0xde, 0xbf, 0x5b,
  0xb4, 0x3f, 0xe0, 0x3b, 0x0d, 0xd4, 0x5b, 0x18, 0xab, 0xe5, 0xb1, 0x92,
  0x04, 0x01, 0x50, 0x9f, 0xf5, 0x9f, 0x85, 0x3b, 0x6b, 0x9a, 0x67, 0x16,
  0x1b, 0x30, 0x9b, 0x8f, 0xe1, 0x81, 0x1b, 0x9e, 0x27, 0x02, 0x59, 0x1e,
  0x5b, 0xa6, 0x42, 0x3d, 0xf1, 0x0b, 0x4e, 0xee, 0xdd, 0x7c, 0x77, 0x4c,
  0x52, 0x48, 0x1e, 0x13, 0xb1, 0xda, 0xc6, 0xc4, 0xe8, 0x15, 0x27, 0xee,
  0x18, 0xbd, 0x47, 0xc1, 0xc9, 0xc7, 0x1a, 0x20, 0xf0, 0xcc, 0x56, 0xfb,
  0x0d, 0x84, 0x09, 0xa4, 0x7f, 0x63, 0xb4, 0x0d, 0xdf, 0x2e, 0xba, 0x28,
  0xf5, 0x33, 0xe6, 0x48, 0x1e, 0x08, 0x2e, 0xf9, 0x39, 0xae, 0xe5, 0x17,
  0xda, 0xee, 0x21, 0x43, 0xd3, 0x81, 0xaa, 0x3a, 0x2b, 0xc5, 0x2f, 0x09,
  0x7b, 0x22, 0xa7, 0x47, 0x9e, 0x0d, 0x3f, 0xca, 0x5a, 0x51, 0xe1, 0x00,
  0x23, 0xe7, 0x08, 0x84, 0xf7, 0xb0, 0xbb, 0xf6, 0x5e, 0xb8, 0xed, 0x2e,
  0xef, 0xdc, 0x4c, 0x3c, 0x5e, 0x2b, 0x08, 0x19, 0x81, 0x20, 0xe9, 0x45,
  0x00, 0x34, 0x33, 0xf0, 0x44, 0x46, 0x30, 0xda, 0xef, 0x0e, 0xb5, 0x7f,
  0x1a, 0x22, 0xe0, 0xdb, 0x2c, 0x27, 0xf6, 0x34, 0xee, 0x03, 0x2d, 0xb7,
  0xd0, 0xb8, 0x06, 0xb8, 0x25, 0xcb, 0x3a, 0xe7, 0x3d, 0x12, 0xd9, 0xd5,
  0xcb, 0xd6, 0x01, 0x3a, 0x45, 0xf8, 0x81, 0x3a, 0xf5, 0x16, 0x09, 0xfd,
  0xee, 0x1c, 0x09, 0x02, 0x30, 0x35, 0x26, 0xe3, 0xc8, 0xe5, 0x26, 0xf9,
  0x12, 0xe6, 0xcf, 0x23, 0xd3, 0x6f, 0x83, 0x64, 0x9b, 0x89, 0x76, 0x57,
  0x81, 0x35, 0xe4, 0x9f, 0x11, 0x0b, 0xbc, 0x94, 0xd2, 0x53, 0x8b, 0x60,
  0x1c, 0x22, 0xb3, 0x32, 0xf8, 0xab, 0xc2, 0x2d, 0xc5, 0x39, 0xa0, 0xd4,
  0x0e, 0x26, 0x57, 0x4f, 0x3a, 0x22, 0xa0, 0x08, 0xda, 0xb7, 0xc9, 0x78,
  0xeb, 0xd9, 0xbc, 0x28, 0x37, 0x52, 0x19, 0x16, 0x02, 0xd0, 0x49, 0x3a,
  0x08, 0x81, 0x43, 0xe4, 0x21, 0x45, 0x23, 0x2d, 0x2e, 0x3d, 0x0d, 0x45,
  0xb1, 0x3b, 0xab, 0xde, 0xe6, 0xc2, 0xe9, 0x27, 0x1b, 0xb2, 0x4b, 0x5a,
  0xbe, 0x39, 0xfc, 0x12, 0xba, 0x81, 0xc6, 0xf7, 0x1f, 0x1c, 0xe3, 0x14,
  0xf1, 0x2e, 0xc1, 0x0f, 0x11, 0x14, 0x21, 0xc9, 0x91, 0x7f, 0x1f, 0xd7,
  0x09, 0xe9, 0x4e, 0x4e, 0x4e, 0xad, 0xfd, 0x1f, 0xf4, 0xf1, 0xac, 0x40,
  0xba, 0x77, 0xb0, 0x20, 0xcb, 0x48, 0xfd, 0xf1, 0x30, 0xab, 0xe2, 0x47,
  0x13, 0x19, 0xac, 0x02, 0x6f, 0x25, 0x7f, 0x34, 0x2a, 0x1f, 0x9d, 0x00,
  0xb8, 0xd1, 0xa9, 0x35, 0x3a, 0x5c, 0xcf, 0x73, 0x58, 0x46, 0x5f, 0x57,
  0xdd, 0xc6, 0xf9, 0x74, 0x04, 0xe4, 0x3b, 0x16, 0x54, 0x26, 0x05, 0x2c,
  0xd4, 0x0c, 0x81, 0xf1, 0xe2, 0xa6, 0x0e, 0x38, 0xdc, 0x38, 0xbc, 0xb0,
  0xf1, 0x1c, 0xa9, 0xf1, 0x5b, 0xf6, 0xbe, 0x49, 0x51, 0x8c, 0x2b, 0xdc,
  0x25, 0x0f, 0x51, 0xeb, 0xd0, 0x19, 0x50, 0x86, 0x2c, 0xd7, 0x9b, 0x2a,
  0x9e, 0x06, 0x32, 0xf3, 0xa4, 0x53, 0xcd, 0x1a, 0x26, 0x45, 0x54, 0x53,
  0xe5, 0xba, 0xc6, 0x3b, 0xe6, 0x34, 0x5d, 0xc1, 0x81, 0xb1, 0x48, 0xa6,
  0xc2, 0x37, 0xa3, 0x94, 0x3e, 0x9a, 0x94, 0x5a, 0xc1, 0x55, 0xf4, 0xd3,
  0x05, 0x84, 0x90, 0xd8, 0x41, 0xa3, 0x9b, 0xce, 0xd3, 0xa2, 0x00, 0x4c,
  0x73, 0xe3, 0x4f, 0xfb, 0xfa, 0x2c, 0xbb, 0x7f, 0x3e, 0xf1, 0xaf, 0x33,
  0x5d, 0x15, 0x39, 0x4d, 0xa6, 0x0a, 0x4d, 0xe5, 0x05, 0x3f, 0x62, 0xbc,
  0x16, 0x37, 0x0b, 0x12, 0x35, 0x7f, 0x17, 0x4d, 0x11, 0xfa, 0xe4, 0x41,
  0xf9, 0x4f, 0x6a, 0xdc, 0x73, 0x92, 0xe6, 0x26, 0x3f, 0x81, 0x74, 0x04,
  0xc6, 0xac, 0x16, 0xdd, 0xb0, 0x1b, 0x29, 0x91, 0x50, 0x06, 0x87, 0xf9,
  0xef, 0xcf, 0x2e, 0xb4, 0x1e, 0xe4, 0x45, 0xe6, 0xe1, 0x6a, 0x9f, 0x5a,
  0x7e, 0x13, 0xd6, 0x4e, 0x75, 0x86, 0x8b, 0xcf, 0xae, 0x09, 0x7c, 0xef,
  0x84, 0xe0, 0x45, 0x4f, 0x7a, 0x02, 0x13, 0x7e, 0x12, 0xee, 0x9f, 0xa7,
  0x4e, 0x08, 0x9d, 0x3c, 0xfa, 0x7f, 0x98, 0x6a, 0x16, 0xe6, 0xf7, 0x88,
  0xe4, 0xbd, 0x5d, 0xdb, 0x1e, 0xe5, 0xd7, 0x4d, 0x39, 0x27, 0x58, 0x27,
  0x43, 0x62, 0x9f, 0x53, 0xe7, 0x9c, 0x4f, 0xb1, 0xf5, 0xf5, 0x01, 0x20,
  0x64, 0xbc, 0x81, 0xeb, 0xb8, 0x4f, 0x35, 0x04, 0xd2, 0x33, 0x81, 0xcd,
  0xc8, 0xb5, 0x4d, 0x4e, 0xef, 0xce, 0x0e, 0xb4, 0xd8, 0xec, 0xe8, 0xe8,
  0xe9, 0x1c, 0x09, 0x2a, 0x48, 0xad, 0x30, 0x16, 0x51, 0xbb, 0x27, 0xef,
  0xe7, 0x1d, 0x81, 0xc3, 0x5e, 0xec, 0xaf, 0xeb, 0x09, 0xe6, 0x0a, 0xcb,
  0x31, 0x01, 0x17, 0x15, 0x51, 0xef, 0x2f, 0x41, 0xd6, 0x24, 0x47, 0x51,
  0x4e, 0xec, 0xcd, 0xfb, 0x9a, 0x4e, 0xe4, 0x3c, 0x4b, 0x33, 0xe1, 0x02,
  0x9c, 0xb7, 0x69, 0x58, 0xa2, 0x4c, 0x11, 0x46, 0x16, 0x7f, 0xe1, 0xc7,
  0x35, 0xb5, 0xfe, 0x51, 0x17, 0xbf, 0xe1, 0x9e, 0xc4, 0x54, 0xe0, 0x20,
  0x65, 0x0c, 0x11, 0x2f, 0x4a, 0x0e, 0xee, 0x63, 0x34, 0xaf, 0x60, 0xef,
  0x3e, 0xf2, 0xdf, 0x81, 0x5c, 0x02, 0xcc, 0x8d, 0xf6, 0x6e, 0xed, 0x0f,
  0x23, 0x2b, 0x60, 0x2e, 0x00, 0xb0, 0x29, 0xa7, 0xce, 0xa6, 0xa0, 0x50,
  0x0d, 0xe5, 0xc8, 0x3c, 0x29, 0x87, 0x65, 0xa0, 0x9e, 0xb1, 0x66, 0xbc,
  0xc7, 0xaa, 0x30, 0x9c, 0xf7, 0x93, 0x81, 0x81, 0x6c, 0x4a, 0x4d, 0x0c,
  0xff, 0x83, 0x99, 0xb3, 0xe8, 0x85, 0xa1, 0xff, 0x2e, 0x60, 0xd3, 0x43,
  0xd0, 0x35, 0x3a, 0xb1, 0x66, 0x07, 0xa4, 0x81, 0xcd, 0xd7, 0x24, 0xac,
  0x46, 0xe1, 0xca, 0xf0, 0x58, 0x10, 0x19, 0x91, 0x1c, 0x38, 0x30, 0xd4,
  0xd7, 0x2c, 0x5e, 0xfc, 0x36, 0xef, 0xff, 0xff, 0x04, 0x00, 0x00, 0x00,
  0x80, 0x00, 0x00, 0x00, 0x12, 0xd2, 0xff, 0xff, 0xcf, 0xc6, 0xff, 0xff,
  0x85, 0xd4, 0xff, 0xff, 0x31, 0xf3, 0xff, 0xff, 0x85, 0xf9, 0xff, 0xff,
  0x6e, 0xcf, 0xff, 0xff, 0xaa, 0x29, 0x00, 0x00, 0xa7, 0x5d, 0x00, 0x00,
  0xfe, 0x70, 0xff, 0xff, 0x58, 0x7f, 0x00, 0x00, 0x54, 0x6a, 0x00, 0x00,
  0x0f, 0xc5, 0xff, 0xff, 0xbd, 0x0d, 0x00, 0x00, 0xd1, 0xf1, 0xff, 0xff,
  0x24, 0x13, 0x00, 0x00, 0xa8, 0x4a, 0x00, 0x00, 0x36, 0x4b, 0x00, 0x00,
  0x92, 0x33, 0x00, 0x00, 0xb7, 0x0e, 0x00, 0x00, 0x69, 0x44, 0x00, 0x00,
  0x00, 0x00, 0x00, 0x00, 0x2c, 0xfc, 0xff, 0xff, 0xeb, 0x00, 0x00, 0x00,
  0xbe, 0xf2, 0xff, 0xff, 0x6c, 0xff, 0xff, 0xff, 0xe1, 0xbc, 0xff, 0xff,
  0xf2, 0x19, 0x00, 0x00, 0xed, 0x20, 0x00, 0x00, 0xd2, 0x0b, 0x00, 0x00,
  0xd0, 0xec, 0xff, 0xff, 0x1c, 0xe2, 0xff, 0xff, 0xe0, 0xa6, 0xff, 0xff,
  0xc2, 0xef, 0xff, 0xff, 0x04, 0x00, 0x00, 0x00, 0x00, 0x04, 0x00, 0x00,
  0x1e, 0x79, 0xf0, 0x0c, 0x3f, 0xda, 0x4c, 0x4b, 0xe8, 0xea, 0x35, 0x67,
  0xdc, 0xfb, 0x27, 0x41, 0x19, 0x26, 0x0d, 0x9f, 0x7f, 0x48, 0x86, 0x03,
  0x5d, 0x1a, 0x48, 0x1d, 0x13, 0x13, 0x9a, 0x46, 0x3d, 0xa7, 0x00, 0x12,
  0xd6, 0x0f, 0x54, 0x07, 0xd6, 0xa3, 0x70, 0x8f, 0x88, 0x9b, 0x7f, 0xb2,
  0xd5, 0xb5, 0x00, 0x85, 0x40, 0x4e, 0xe2, 0x1a, 0xd8, 0x51, 0xdb, 0x29,
  0xed, 0xa8, 0x7a, 0xca, 0xa3, 0x59, 0x97, 0x2a, 0x6b, 0xbe, 0xe7, 0x71,
  0x81, 0xa7, 0xcc, 0x55, 0x60, 0xc5, 0x5b, 0x10, 0xb7, 0xad, 0xb2, 0x82,
  0x1c, 0xe9, 0x7d, 0xa5, 0x85, 0x21, 0xe3, 0x55, 0xad, 0x23, 0x15, 0x1e,
  0x8b, 0xb3, 0xe7, 0xf9, 0xad, 0x81, 0x29, 0xa5, 0xef, 0x35, 0xdf, 0xe2,
  0xa3, 0x5a, 0xd1, 0x97, 0xc1, 0x23, 0xc2, 0xb9, 0xb2, 0x94, 0x9e, 0x4d,
  0x57, 0xb4, 0x27, 0x34, 0xaa, 0x18, 0x3f, 0x5e, 0xea, 0xe0, 0xd2, 0x25,
  0xde, 0x22, 0xae, 0xfd, 0x44, 0xfa, 0x32, 0x1d, 0x1a, 0xc2, 0xd5, 0xeb,
  0x28, 0x81, 0x18, 0xef, 0x24, 0x38, 0xfb, 0x1d, 0x07, 0xf5, 0x11, 0x29,
  0xfd, 0x44, 0xf6, 0xaf, 0x32, 0xef, 0x6e, 0x98, 0x87, 0xad, 0xc7, 0x92,
  0x46, 0x81, 0xb9, 0x16, 0xdb, 0x60, 0xee, 0xc0, 0x1b, 0x9f, 0xfc, 0x9c,
  0xa2, 0x91, 0x6a, 0xf9, 0x2d, 0x2c, 0x16, 0x53, 0x41, 0xb9, 0xab, 0x2c,
  0xd4, 0xf8, 0x3a, 0x81, 0xc2, 0xb3, 0xfa, 0x58, 0x9a, 0x2d, 0x35, 0xf0,
  0x4f, 0xe0, 0x1b, 0x29, 0x3d, 0x14, 0xd6, 0xe3, 0x4a, 0x37, 0xe1, 0x36,
  0xbd, 0x31, 0x24, 0xc2, 0xc1, 0xb1, 0x41, 0xb4, 0xba, 0xd4, 0xeb, 0x46,
  0x16, 0x11, 0xf0, 0xd5, 0xb3, 0x03, 0x02, 0x0e, 0x1d, 0x8f, 0x39, 0xff,
  0xc7, 0x81, 0x11, 0x38, 0x0c, 0x4a, 0x16, 0x01, 0xfd, 0xfb, 0xd9, 0x1a,
  0xbb, 0x21, 0xcf, 0xe1, 0x68, 0xc6, 0xca, 0x4b, 0x1c, 0xee, 0xa3, 0xca,
  0x73, 0x42, 0x81, 0xfb, 0x73, 0xdf, 0x71, 0x78, 0xa2, 0xd7, 0x01, 0xf0,
  0xfb, 0x31, 0x88, 0x06, 0x89, 0xfa, 0xb2, 0xa6, 0x56, 0x7d, 0xf3, 0xd0,
  0xa0, 0xf0, 0x11, 0x0e, 0x87, 0x0f, 0x81, 0xc5, 0x8b, 0xb6, 0xf2, 0x19,
  0xc2, 0xa8, 0xfb, 0x6c, 0xfa, 0x64, 0xd8, 0x9b, 0x07, 0xbb, 0x74, 0x1b,
  0xf8, 0xde, 0x49, 0x9e, 0xfc, 0x57, 0xaf, 0x6d, 0x4b, 0x1d, 0xfb, 0x07,
  0x03, 0x2c, 0x9a, 0x5f, 0x14, 0x5b, 0xd3, 0x50, 0xc2, 0x39, 0xb0, 0xd8,
  0xc0, 0x8a, 0x03, 0xed, 0x55, 0x78, 0x5b, 0x45, 0x6e, 0x6d, 0xee, 0x7e,
  0x5c, 0x7f, 0xb4, 0x10, 0x01, 0xf7, 0x24, 0xe8, 0x9b, 0x32, 0x0f, 0x5b,
  0xba, 0x9b, 0x88, 0xc9, 0x54, 0x96, 0x17, 0xd0, 0x63, 0xc2, 0x95, 0x96,
  0x90, 0x81, 0x82, 0xf0, 0x58, 0x4e, 0x1b, 0x6c, 0x00, 0x8e, 0xda, 0x7a,
  0x42, 0xa1, 0x43, 0xae, 0x18, 0xd0, 0xcc, 0x13, 0x76, 0x00, 0x4e, 0x2c,
  0xdc, 0x7a, 0x08, 0xdf, 0xf9, 0x47, 0x81, 0x46, 0xdc, 0x0a, 0x89, 0x9b,
  0xb3, 0xfb, 0x9a, 0x75, 0xb5, 0xf5, 0xdc, 0x08, 0xe9, 0xe2, 0x01, 0x18,
  0xe3, 0x81, 0x64, 0x19, 0x46, 0x55, 0x08, 0x0c, 0x15, 0xb1, 0x8c, 0xbb,
  0x14, 0xde, 0x37, 0xeb, 0x5d, 0x65, 0xed, 0x42, 0xa9, 0xc2, 0x02, 0xc0,
  0xa4, 0x33, 0x72, 0xe4, 0x83, 0xaf, 0xb2, 0x9e, 0x17, 0xe8, 0x1d, 0x88,
  0x34, 0xf8, 0xa7, 0x37, 0x2f, 0x2a, 0xe4, 0x8e, 0x54, 0x8a, 0xb6, 0xed,
  0x94, 0x21, 0x97, 0x64, 0xf0, 0x09, 0x93, 0xd5, 0x81, 0xca, 0xd9, 0x3d,
  0x02, 0xa9, 0xbc, 0xde, 0xac, 0xdf, 0x5d, 0x41, 0xe3, 0x6b, 0x52, 0xb8,
  0x10, 0xa8, 0x81, 0x15, 0x44, 0xde, 0xeb, 0x28, 0x57, 0x2b, 0x04, 0x21,
  0xb3, 0x32, 0x0c, 0xff, 0xc6, 0xab, 0x18, 0xa8, 0xda, 0xda, 0xba, 0x84,
  0x81, 0xa7, 0x46, 0x7d, 0x06, 0xa1, 0x47, 0x25, 0xd8, 0x6a, 0xfd, 0x05,
  0x2c, 0xea, 0xce, 0xb1, 0x99, 0x9d, 0xbb, 0x66, 0x8f, 0x91, 0xb9, 0xc2,
  0xe0, 0x2e, 0x5d, 0x1a, 0x63, 0xc0, 0x31, 0x10, 0xf8, 0x1e, 0x6c, 0x71,
  0x60, 0x8d, 0x88, 0x58, 0x48, 0x29, 0x26, 0x00, 0x03, 0xb0, 0x58, 0xc6,
  0x5e, 0xff, 0x89, 0x2e, 0x29, 0x54, 0x14, 0xd1, 0x81, 0xb8, 0x94, 0xb6,
  0x1c, 0x40, 0x34, 0x6d, 0x13, 0x22, 0x27, 0x59, 0x86, 0x23, 0x52, 0xfc,
  0x81, 0xbb, 0xfb, 0x0f, 0x50, 0x9e, 0x6b, 0xf7, 0xdd, 0x02, 0x47, 0x32,
  0x76, 0x82, 0x13, 0xd8, 0xab, 0x36, 0xfb, 0x3f, 0xd4, 0x5c, 0x24, 0xae,
  0x2b, 0x81, 0x35, 0x8b, 0xf9, 0x26, 0xd6, 0x15, 0x41, 0xe3, 0x00, 0xcc,
  0x44, 0xb6, 0x31, 0x95, 0x38, 0x50, 0x8a, 0x12, 0x3e, 0xcc, 0x98, 0x46,
  0x52, 0x42, 0x00, 0x48, 0x8c, 0xf9, 0x61, 0xeb, 0xf5, 0x42, 0x3c, 0xd4,
  0x1f, 0xc8, 0xc5, 0xcb, 0x7c, 0x30, 0x91, 0xe2, 0x19, 0xda, 0xb5, 0xcf,
  0xd6, 0x9e, 0x28, 0xd4, 0x1a, 0xd0, 0xc4, 0xab, 0x17, 0x7f, 0x58, 0x02,
  0x04, 0xca, 0x42, 0xdc, 0xfc, 0x13, 0x41, 0x24, 0xf2, 0xf9, 0x1f, 0xf7,
  0xde, 0x81, 0xb7, 0xe3, 0xfd, 0xa6, 0xc8, 0x42, 0x18, 0xca, 0xe6, 0xc6,
  0x1d, 0x13, 0xdb, 0x30, 0xd6, 0x2a, 0xc5, 0xc9, 0x81, 0x94, 0x82, 0x10,
  0x65, 0x88, 0xd4, 0xa5, 0x29, 0x38, 0x05, 0x38, 0x4f, 0x51, 0xc7, 0x20,
  0x69, 0xee, 0x85, 0x9f, 0x53, 0xa8, 0x45, 0x04, 0x88, 0x3a, 0x0f, 0x2c,
  0x8f, 0xae, 0x5f, 0xd3, 0x0d, 0x64, 0x36, 0x70, 0x0b, 0x2f, 0x05, 0xaa,
  0x12, 0xf2, 0x8e, 0x13, 0x66, 0xb3, 0xd9, 0x00, 0x71, 0x8f, 0x88, 0xf0,
  0x23, 0x7f, 0x56, 0x28, 0x0d, 0xc8, 0xa2, 0x85, 0x97, 0x12, 0xc3, 0xf4,
  0x21, 0x5c, 0x6a, 0x4a, 0x0c, 0xd1, 0x48, 0x4c, 0xc2, 0x15, 0xcd, 0xee,
  0x07, 0xf7, 0x15, 0x5f, 0x41, 0x81, 0x3e, 0xdd, 0x45, 0xaf, 0xb8, 0x22,
  0x2f, 0x62, 0x3f, 0xdb, 0xb7, 0x14, 0x43, 0x53, 0x4d, 0x57, 0x6c, 0xf2,
  0xd6, 0x19, 0xfc, 0x44, 0xc5, 0xf7, 0x4a, 0x53, 0xaf, 0xc2, 0x9c, 0x0f,
  0xda, 0x81, 0x4f, 0x5d, 0xfd, 0x2e, 0x51, 0xfe, 0x2c, 0xa9, 0xc8, 0xac,
  0xe2, 0xc9, 0x69, 0xb7, 0x47, 0xc4, 0xcb, 0xd3, 0x25, 0x12, 0xc8, 0x3f,
  0x41, 0x7f, 0x18, 0x29, 0x2e, 0xae, 0x0b, 0x21, 0x02, 0xec, 0xf8, 0x30,
  0x3c, 0xe9, 0x1e, 0xbd, 0x13, 0xbe, 0x43, 0xd3, 0x36, 0x1a, 0x30, 0xd7,
  0x17, 0xf7, 0x27, 0xed, 0xf9, 0xd1, 0xac, 0xe7, 0x4b, 0xda, 0x52, 0x22,
  0xd8, 0xdf, 0x5e, 0xe5, 0x96, 0x9f, 0xc4, 0x84, 0xcb, 0x94, 0x33, 0xb9,
  0x81, 0x11, 0xaa, 0x96, 0x3a, 0x79, 0x6e, 0x75, 0xd9, 0xc3, 0xf8, 0xb3,
  0xe0, 0x81, 0x02, 0x43, 0x05, 0x05, 0x12, 0x04, 0xed, 0xcb, 0x37, 0x15,
  0x0f, 0x9c, 0xd1, 0x47, 0xf9, 0xe6, 0xde, 0x33, 0xff, 0x46, 0x13, 0xae,
  0xfc, 0xf4, 0x29, 0xa2, 0xae, 0x56, 0x81, 0xc5, 0x85, 0xe7, 0x09, 0x2b,
  0x2a, 0x0d, 0xec, 0xe7, 0xd2, 0x8d, 0x3e, 0x31, 0xf1, 0x74, 0x13, 0xe6,
  0x86, 0xd7, 0xf5, 0x34, 0x57, 0xd0, 0xc1, 0x65, 0xc1, 0x5b, 0x48, 0xc9,
  0x70, 0x51, 0x84, 0x1e, 0x54, 0x77, 0xe6, 0xd1, 0x53, 0x0c, 0x3c, 0x55,
  0x4c, 0xb6, 0xa6, 0xe3, 0x8e, 0x83, 0xcf, 0xa4, 0xc9, 0x02, 0x85, 0xae,
  0xa9, 0x38, 0x98, 0xff, 0xb9, 0x68, 0x7f, 0xba, 0x25, 0x3e, 0xf9, 0xb4,
  0xc9, 0xed, 0xd4, 0x4a, 0xd3, 0x7f, 0x14, 0xef, 0x2e, 0x33, 0xfa, 0x4f,
  0x09, 0x96, 0xa4, 0x3f, 0xc5, 0x53, 0x50, 0xe4, 0x1d, 0x25, 0x1f, 0xc2,
  0x30, 0x2a, 0xab, 0xba, 0xce, 0xf3, 0xff, 0xff, 0x04, 0x00, 0x00, 0x00,
  0x80, 0x00, 0x00, 0x00, 0xe7, 0xce, 0xff, 0xff, 0x00, 0x00, 0x00, 0x00,
  0x00, 0x00, 0x00, 0x00, 0xd6, 0xea, 0xff, 0xff, 0x2d, 0x41, 0x00, 0x00,
  0x26, 0xe8, 0xff, 0xff, 0x1f, 0x1d, 0x00, 0x00, 0x34, 0x4a, 0x00, 0x00,
  0x04, 0xfb, 0xff, 0xff, 0xd9, 0xfa, 0xff, 0xff, 0x9b, 0xd1, 0xff, 0xff,
  0x00, 0x00, 0x00, 0x00, 0x1f, 0xf3, 0xff, 0xff, 0x75, 0xc0, 0xff, 0xff,
  0x00, 0x00, 0x00, 0x00, 0xad, 0x60, 0x00, 0x00, 0x05, 0xfc, 0xff, 0xff,
  0xc5, 0xdd, 0xff, 0xff, 0xff, 0xc7, 0xff, 0xff, 0xba, 0x0c, 0x00, 0x00,
  0xe1, 0x8b, 0xff, 0xff, 0xe1, 0x55, 0x00, 0x00, 0xae, 0xef, 0xff, 0xff,
  0x5e, 0xf6, 0xff, 0xff, 0x69, 0x59, 0x00, 0x00, 0xf1, 0x0e, 0x00, 0x00,
  0xeb, 0x2a, 0x00, 0x00, 0x5e, 0xfa, 0xff, 0xff, 0xb3, 0x23, 0x00, 0x00,
  0x70, 0x28, 0x00, 0x00, 0x64, 0x9f, 0xff, 0xff, 0xf3, 0x38, 0x00, 0x00,
  0x5a, 0xf4, 0xff, 0xff, 0x04, 0x00, 0x00, 0x00, 0x00, 0x04, 0x00, 0x00,
  0x44, 0xfb, 0x89, 0x71, 0xc5, 0x3f, 0xaa, 0x03, 0xb2, 0x1e, 0x99, 0x70,
  0x16, 0xeb, 0xdd, 0xfc, 0x9a, 0x27, 0xd2, 0xf7, 0x3f, 0x22, 0xf9, 0xe1,
  0x1c, 0x7f, 0x31, 0xb3, 0xf3, 0xb8, 0x78, 0x71, 0x52, 0x17, 0x15, 0xd8,
  0xb3, 0x57, 0xd2, 0x78, 0xae, 0x21, 0xce, 0x51, 0x4b, 0xae, 0x6c, 0x5a,
  0xb8, 0x76, 0xe1, 0xd8, 0xc3, 0xdf, 0xcc, 0x75, 0xe0, 0xe9, 0xc9, 0x7f,
  0x06, 0xab, 0xee, 0x12, 0x8d, 0x7f, 0x97, 0x64, 0x28, 0x09, 0xbb, 0x28,
  0x79, 0xaf, 0xda, 0xab, 0x3e, 0x56, 0x38, 0x6a, 0xb8, 0x3f, 0xce, 0x4d,
  0x0c, 0x9e, 0xd7, 0xe2, 0x2c, 0x1f, 0x9c, 0x50, 0x6a, 0xce, 0x5f, 0x53,
  0xe3, 0x33, 0xea, 0xcc, 0x0a, 0x3c, 0xea, 0xf9, 0x0f, 0x21, 0x37, 0xe9,
  0xf5, 0xf5, 0xc8, 0x81, 0xf1, 0xb5, 0xf8, 0x2f, 0x1b, 0x02, 0x00, 0x38,
  0x37, 0xf2, 0xbe, 0x19, 0x0c, 0xf0, 0x2e, 0xd5, 0x9f, 0xde, 0x05, 0x68,
  0xf5, 0x53, 0x8c, 0x86, 0x3b, 0x14, 0xd6, 0x3e, 0x57, 0x82, 0xf1, 0x89,
  0x2d, 0xd4, 0xb7, 0x36, 0xad, 0xf9, 0x3c, 0xe6, 0x11, 0x08, 0x9a, 0x57,
  0xb1, 0x81, 0xc6, 0x95, 0x31, 0xcb, 0xbf, 0x14, 0xbf, 0xde, 0x30, 0xa1,
  0xe6, 0xa2, 0xca, 0x11, 0x11, 0x17, 0x7f, 0x1b, 0xca, 0xb8, 0x31, 0x9a,
  0x25, 0x18, 0x2a, 0x8c, 0xcb, 0xc3, 0x8a, 0xd8, 0x2d, 0xa6, 0x1e, 0x86,
  0x2a, 0xa9, 0xe8, 0x0b, 0x33, 0xb8, 0x7f, 0x06, 0xd4, 0x52, 0xee, 0xc7,
  0x48, 0x2d, 0x3b, 0x71, 0x0f, 0xd5, 0x0b, 0x32, 0x54, 0x36, 0x2c, 0x31,
  0x19, 0xe9, 0x51, 0x4c, 0x0a, 0x46, 0xe7, 0x42, 0x30, 0xed, 0x1e, 0xdb,
  0xd9, 0x51, 0xfc, 0x20, 0xf5, 0xd9, 0xb0, 0x3e, 0x0f, 0x44, 0x4b, 0x67,
  0x58, 0x15, 0xf2, 0xd6, 0xdc, 0x7f, 0x16, 0xfe, 0x39, 0xae, 0xb3, 0xf0,
  0x69, 0xf1, 0x50, 0x15, 0x2a, 0xe7, 0x38, 0x0b, 0x24, 0x13, 0x47, 0x1f,
  0xcd, 0x14, 0x22, 0xe4, 0x25, 0xf7, 0xbe, 0xb8, 0xf9, 0x1d, 0x34, 0xb7,
  0x2b, 0xda, 0xd1, 0xf2, 0xc3, 0x03, 0x31, 0x2e, 0x7f, 0xc2, 0xf9, 0x00,
  0x20, 0xbf, 0xe5, 0x5b, 0xc6, 0x44, 0xe9, 0xac, 0xaa, 0x07, 0x3c, 0x4b,
  0x58, 0x1e, 0x79, 0xc0, 0xa9, 0xa1, 0x91, 0x6d, 0xee, 0x3e, 0x7f, 0xae,
  0x9e, 0x9f, 0x70, 0xc0, 0x31, 0x99, 0x3b, 0xd8, 0x12, 0xb2, 0xe0, 0xbd,
  0x4d, 0xba, 0xb2, 0xf7, 0xe1, 0xae, 0xe3, 0xa7, 0xf6, 0xd9, 0xe6, 0x7f,
  0xbc, 0xc6, 0x20, 0x16, 0x47, 0x46, 0x24, 0x43, 0x39, 0x56, 0xfe, 0x5a,
  0x3d, 0xe1, 0xdb, 0x49, 0xe8, 0x13, 0xc9, 0xce, 0x0d, 0x0d, 0xf3, 0x38,
  0xfd, 0x0b, 0xd9, 0x2c, 0xed, 0xfb, 0xf5, 0x7f, 0xeb, 0x12, 0xe3, 0x32,
  0x13, 0x3b, 0xec, 0x13, 0xee, 0x2d, 0x15, 0x03, 0x01, 0x2e, 0xe2, 0x25,
  0x67, 0x19, 0xee, 0x19, 0xa2, 0x93, 0x81, 0x01, 0x67, 0xcf, 0xa4, 0xf6,
  0x61, 0xf2, 0x3a, 0x41, 0xa7, 0xba, 0x2b, 0xf5, 0x98, 0x14, 0xfb, 0xfb,
  0x90, 0x2c, 0x13, 0x09, 0x73, 0x96, 0xb6, 0x56, 0x06, 0x0b, 0x27, 0xdd,
  0x1e, 0x14, 0x12, 0xe5, 0xec, 0x12, 0x1f, 0xd3, 0x0d, 0x10, 0x0a, 0x81,
  0xe6, 0xf5, 0x2d, 0x0d, 0xe2, 0xae, 0xfa, 0x38, 0xd2, 0xd6, 0xec, 0x19,
  0xfd, 0x22, 0x06, 0x27, 0x0d, 0x06, 0x06, 0x16, 0xda, 0xf8, 0x2c, 0xb8,
  0x1b, 0xcc, 0x91, 0xe1, 0x3b, 0xe2, 0x3f, 0x51, 0xd1, 0xa4, 0xdf, 0xdd,
  0xd5, 0x40, 0x33, 0xeb, 0xf6, 0xeb, 0x3a, 0xbe, 0x7f, 0xb4, 0x35, 0xe4,
  0x92, 0x4b, 0xf4, 0x4f, 0x74, 0x09, 0x68, 0x38, 0x25, 0x38, 0x00, 0x14,
  0x06, 0xc0, 0xc2, 0x12, 0xbe, 0xe9, 0xc0, 0xa1, 0xe0, 0xfc, 0xb0, 0xe1,
  0x8a, 0x40, 0x1f, 0x13, 0xb6, 0xb4, 0xa2, 0x81, 0x5c, 0xd3, 0x39, 0xc2,
  0xf4, 0x46, 0xa0, 0xcd, 0xe6, 0xd1, 0xbb, 0x4b, 0x9e, 0xe5, 0x67, 0x69,
  0x1e, 0x49, 0xbe, 0x18, 0xdf, 0x7f, 0xbd, 0x4c, 0x23, 0x3d, 0x6a, 0xbb,
  0x2d, 0xc8, 0x35, 0xb5, 0x46, 0x31, 0x29, 0xad, 0xf5, 0xbe, 0x11, 0x06,
  0x2f, 0x12, 0x25, 0xde, 0x3f, 0x4a, 0x11, 0xf4, 0x19, 0xbf, 0x42, 0x42,
  0xd0, 0x81, 0x52, 0x59, 0xef, 0x0a, 0xf4, 0xf9, 0x76, 0xd0, 0x28, 0x4c,
  0xe5, 0x0d, 0xf4, 0x00, 0x33, 0xd2, 0x9d, 0x33, 0xf2, 0x13, 0x3b, 0xf7,
  0xf7, 0x1a, 0xcc, 0x7f, 0xcf, 0xc5, 0xed, 0x06, 0xea, 0x55, 0xe7, 0x15,
  0x38, 0x08, 0x39, 0xbf, 0x56, 0xe7, 0x02, 0x3d, 0xae, 0xa2, 0xed, 0xa1,
  0x96, 0x55, 0xcf, 0xcd, 0xb0, 0x02, 0x03, 0x58, 0xa7, 0xc1, 0xa5, 0x22,
  0xfb, 0x22, 0xa6, 0xc3, 0x45, 0x4b, 0x39, 0x40, 0x05, 0xda, 0x46, 0xe2,
  0x81, 0x4a, 0x2d, 0x8d, 0x41, 0x31, 0xf1, 0xa5, 0xf2, 0xdf, 0x27, 0x24,
  0xcf, 0xe4, 0x3c, 0x56, 0x0b, 0x40, 0xfd, 0xd3, 0x25, 0xb3, 0x51, 0xd3,
  0x13, 0xff, 0xc5, 0x05, 0x50, 0xcd, 0x5f, 0xd6, 0x81, 0xfc, 0x0c, 0x41,
  0x08, 0x3b, 0xc7, 0x9c, 0xaa, 0xcd, 0x7f, 0xa2, 0x54, 0xab, 0x3a, 0x50,
  0x59, 0xdd, 0x40, 0xbe, 0xdb, 0xea, 0xd5, 0x36, 0x24, 0xd3, 0x47, 0x0c,
  0x3b, 0x4e, 0x68, 0xe6, 0x21, 0xe2, 0x2f, 0x38, 0xe6, 0xe5, 0x32, 0xf8,
  0x14, 0x16, 0x81, 0x3b, 0xdf, 0xab, 0xd7, 0x2a, 0xd6, 0x05, 0x10, 0x48,
  0xe4, 0xe3, 0x38, 0x1b, 0xda, 0x53, 0x15, 0xc8, 0x0d, 0xd7, 0xf6, 0x25,
  0x0f, 0xe0, 0xf3, 0x4a, 0xac, 0xdd, 0x00, 0x1a, 0x35, 0x63, 0x81, 0x26,
  0xdd, 0xfd, 0x47, 0x0b, 0xc1, 0xd2, 0x1c, 0x70, 0x0e, 0x30, 0xa5, 0xf4,
  0xbe, 0x44, 0xd4, 0x27, 0x0f, 0x16, 0x44, 0xd0, 0x18, 0x25, 0x2f, 0x35,
  0xad, 0xd6, 0xa4, 0xe3, 0x10, 0x43, 0xb0, 0x1b, 0x40, 0x03, 0xf6, 0xd9,
  0x2f, 0xe0, 0xf3, 0x7f, 0xa9, 0xf6, 0xe8, 0xfc, 0xbe, 0x79, 0x0f, 0xd8,
  0xba, 0xf9, 0x1a, 0x3a, 0x46, 0xa5, 0xd1, 0x66, 0x25, 0xf5, 0xf3, 0x1f,
  0x39, 0x43, 0x7f, 0x0f, 0x39, 0xe1, 0x43, 0xcd, 0xee, 0xd3, 0xe3, 0xfb,
  0x20, 0xbe, 0xbf, 0xbd, 0x2e, 0x05, 0xff, 0x09, 0xeb, 0x3a, 0x35, 0x37,
  0x2c, 0x07, 0x28, 0x22, 0x0b, 0xe5, 0xdf, 0xf7, 0xf3, 0xf0, 0x02, 0xed,
  0xc4, 0xc6, 0xce, 0x3f, 0x00, 0xd4, 0x39, 0x76, 0x3a, 0xf3, 0xce, 0xfd,
  0xd6, 0x25, 0xb9, 0xf8, 0x50, 0xca, 0x20, 0x10, 0x7f, 0x35, 0xff, 0xd5,
  0x02, 0xc3, 0xd0, 0x02, 0x02, 0x38, 0x21, 0x07, 0x06, 0x1d, 0xdf, 0x9a,
  0x4c, 0x7e, 0x5a, 0x07, 0x2e, 0xfd, 0x0b, 0x05, 0x53, 0x72, 0x81, 0x63,
  0x71, 0x34, 0x0c, 0xb1, 0xc2, 0xe3, 0xd2, 0xbf, 0xe2, 0xf9, 0x36, 0x3c,
  0x15, 0x77, 0xbf, 0x2c, 0x4e, 0x57, 0x0b, 0x0e, 0xf1, 0x40, 0x8b, 0xd4,
  0x42, 0x81, 0x52, 0xfb, 0xdd, 0xff, 0x4b, 0x44, 0x13, 0xe8, 0x0a, 0x41,
  0xb8, 0x47, 0xfa, 0xbf, 0x21, 0x56, 0xd4, 0x22, 0xd7, 0xba, 0x81, 0xe4,
  0xe4, 0x40, 0xbb, 0x14, 0x1a, 0x13, 0xc7, 0x0b, 0xac, 0xe8, 0x2e, 0xf2,
  0x2e, 0x57, 0x37, 0xdc, 0xef, 0xd7, 0x38, 0x3c, 0x32, 0xd3, 0xd3, 0x0c,
  0x03, 0xd0, 0x70, 0xd4, 0x5c, 0xb7, 0xf1, 0x3d, 0x51, 0x5e, 0x55, 0x05,
  0x41, 0xae, 0x4a, 0xba, 0xe2, 0x8b, 0xcc, 0xa0, 0x87, 0x2f, 0x8e, 0xae,
  0xb7, 0xfe, 0xfd, 0x66, 0x81, 0xd3, 0x0a, 0xbb, 0x83, 0xa2, 0xee, 0x38,
  0xdc, 0xa4, 0xba, 0xb4, 0x1d, 0x17, 0x07, 0x5d, 0x8f, 0xfe, 0xdc, 0x84,
  0x51, 0x1c, 0x96, 0x27, 0x7f, 0x27, 0x7a, 0x10, 0x28, 0x89, 0xef, 0x92,
  0x82, 0xb8, 0x65, 0x64, 0x66, 0xf8, 0xff, 0xff, 0x04, 0x00, 0x00, 0x00,
  0x80, 0x00, 0x00, 0x00, 0xe0, 0x15, 0x00, 0x00, 0x53, 0xee, 0xff, 0xff,
  0x82, 0xee, 0xff, 0xff, 0xb9, 0x06, 0x00, 0x00, 0x00, 0x00, 0x00, 0x00,
  0x00, 0x00, 0x00, 0x00, 0x9d, 0x12, 0x00, 0x00, 0xca, 0x25, 0x00, 0x00,
  0x8d, 0x25, 0x00, 0x00, 0xae, 0xf1, 0xff, 0xff, 0x1e, 0x38, 0x00, 0x00,
  0xbe, 0x2b, 0x00, 0x00, 0x7d, 0xde, 0xff, 0xff, 0xbd, 0x2b, 0x00, 0x00,
  0x77, 0xfb, 0xff, 0xff, 0x30, 0xf3, 0xff, 0xff, 0xad, 0xff, 0xff, 0xff,
  0x43, 0x00, 0x00, 0x00, 0xda, 0x28, 0x00, 0x00, 0x81, 0xf3, 0xff, 0xff,
  0xb5, 0xeb, 0xff, 0xff, 0x20, 0xce, 0xff, 0xff, 0x34, 0x1e, 0x00, 0x00,
  0xf3, 0x41, 0x00, 0x00, 0x4c, 0x02, 0x00, 0x00, 0x4c, 0xd8, 0xff, 0xff,
  0xa1, 0x37, 0x00, 0x00, 0x12, 0x0f, 0x00, 0x00, 0xf3, 0xdd, 0xff, 0xff,
  0x16, 0x0b, 0x00, 0x00, 0x00, 0x00, 0x00, 0x00, 0x00, 0x00, 0x00, 0x00,
  0xf2, 0xf8, 0xff, 0xff, 0x04, 0x00, 0x00, 0x00, 0x00, 0x04, 0x00, 0x00,
  0x33, 0xdd, 0x17, 0x4b, 0x16, 0xc8, 0xf2, 0x62, 0x2f, 0x20, 0xa6, 0xc0,
  0xf4, 0x3d, 0x55, 0x01, 0x74, 0x65, 0x2a, 0xe7, 0x79, 0xae, 0x0d, 0x0a,
  0xf5, 0xdd, 0x7f, 0xfd, 0xba, 0x42, 0xd0, 0x3b, 0x01, 0xee, 0xf3, 0x2d,
  0xf9, 0xd0, 0xfc, 0xe7, 0xa4, 0xfb, 0xf4, 0x32, 0xd0, 0x1f, 0x0c, 0xf8,
  0xfc, 0xa7, 0x29, 0x2b, 0xc8, 0xf7, 0x09, 0x05, 0x7f, 0x00, 0xf6, 0x1a,
  0xb8, 0x13, 0xee, 0x13, 0xfe, 0xbc, 0x1f, 0xe4, 0x26, 0x12, 0xbd, 0x42,
  0xf1, 0x27, 0x1d, 0xd0, 0x16, 0x1e, 0x72, 0x14, 0x1e, 0xff, 0xec, 0x05,
  0xb4, 0xc3, 0x31, 0x33, 0x29, 0x0b, 0xd2, 0xed, 0x85, 0x7f, 0xf5, 0x16,
  0xb1, 0xd9, 0x57, 0x63, 0xcc, 0xc0, 0xcb, 0x3b, 0x08, 0x4e, 0x27, 0x7f,
  0x0f, 0x1d, 0x50, 0xcf, 0x43, 0x47, 0xfb, 0xca, 0xdd, 0xbe, 0xda, 0x6b,
  0xa3, 0x13, 0x43, 0x00, 0xe2, 0xe8, 0x5a, 0xa2, 0x81, 0x3a, 0x0d, 0xcd,
  0xcd, 0xc9, 0xb3, 0x0a, 0x0f, 0x61, 0x0d, 0x24, 0xb5, 0xba, 0x6a, 0x33,
  0x4f, 0x4d, 0xbe, 0x64, 0xee, 0xf7, 0x02, 0x91, 0x98, 0x9b, 0xeb, 0x4d,
  0xc0, 0xf2, 0x94, 0x2b, 0x35, 0xc0, 0x0d, 0x43, 0x34, 0xcb, 0x2e, 0x44,
  0x55, 0xdd, 0xba, 0xc4, 0x07, 0x06, 0x7f, 0x23, 0x45, 0x6c, 0x29, 0x5b,
  0xf3, 0x18, 0xb9, 0xae, 0x26, 0x20, 0x41, 0xb8, 0x59, 0x53, 0x6e, 0xa0,
  0xf5, 0xf5, 0x31, 0xc9, 0x21, 0xd1, 0x0e, 0x0d, 0xe4, 0xfc, 0x34, 0x7f,
  0x04, 0xd8, 0x0d, 0x04, 0xf3, 0xe7, 0x37, 0x24, 0xdc, 0xf2, 0x19, 0x41,
  0xbd, 0xe5, 0x3f, 0xdc, 0xde, 0x57, 0x07, 0xcb, 0xec, 0xc2, 0x16, 0xca,
  0xe1, 0xd3, 0xd2, 0x0d, 0x0b, 0xc0, 0x14, 0x35, 0xd3, 0x03, 0xd5, 0x49,
  0x48, 0x38, 0x01, 0x23, 0x37, 0xb4, 0x3a, 0xe9, 0x81, 0x08, 0xdc, 0x44,
  0xc3, 0xf9, 0xfd, 0xe6, 0xce, 0x18, 0xf1, 0x67, 0x87, 0x2e, 0xa7, 0xdc,
  0xeb, 0x43, 0x78, 0xca, 0xc5, 0xbd, 0xe3, 0x54, 0xfc, 0x5a, 0x83, 0x9d,
  0x9a, 0xd1, 0xa3, 0x56, 0xde, 0x73, 0xab, 0x81, 0x42, 0xd1, 0xcf, 0x83,
  0x39, 0x13, 0xb8, 0x43, 0x17, 0xc9, 0xde, 0xf4, 0x81, 0x35, 0xcb, 0x2f,
  0xb0, 0xfd, 0xba, 0x1c, 0xc9, 0x9c, 0x02, 0x31, 0xf0, 0xc3, 0x32, 0x40,
  0x69, 0xe2, 0x0a, 0x06, 0x1a, 0x1a, 0x3b, 0xbc, 0x09, 0x7d, 0xbc, 0x98,
  0x71, 0x02, 0x18, 0x3e, 0xe7, 0x25, 0x0a, 0x61, 0xa9, 0xc9, 0xb9, 0xbe,
  0x13, 0xc2, 0x63, 0x5c, 0x7f, 0x10, 0x35, 0x20, 0x24, 0x25, 0x36, 0x9e,
  0x41, 0xaf, 0x84, 0x1c, 0xe9, 0xcc, 0xa3, 0x09, 0xd4, 0xbd, 0x3d, 0x38,
  0xf9, 0xdf, 0xe8, 0x36, 0xd9, 0xcf, 0xe4, 0xff, 0xde, 0x16, 0x22, 0xe8,
  0xe1, 0xe1, 0xc6, 0x27, 0x7f, 0x20, 0xde, 0xc7, 0x2c, 0xf0, 0xe1, 0x3a,
  0xd4, 0x85, 0x56, 0xee, 0xad, 0xd4, 0x3a, 0x82, 0x94, 0xe4, 0xf8, 0x3f,
  0x7f, 0x61, 0xa6, 0x48, 0xc1, 0xcc, 0xca, 0x43, 0x94, 0x99, 0xe4, 0x9d,
  0x71, 0xbc, 0xb0, 0xae, 0xcc, 0xf9, 0x12, 0x16, 0x40, 0x3d, 0x02, 0x64,
  0xef, 0x1a, 0xf4, 0xb5, 0x14, 0x03, 0xfd, 0xcb, 0xc4, 0x15, 0x04, 0x47,
  0xfa, 0x2e, 0x04, 0x9d, 0x5e, 0x39, 0x81, 0xe7, 0x2e, 0x0d, 0xc7, 0xce,
  0xa3, 0x1d, 0xb0, 0x2f, 0x24, 0xbe, 0x07, 0x11, 0xfb, 0xfb, 0x38, 0xda,
  0x29, 0xd1, 0x2f, 0xf1, 0xce, 0x0b, 0xbc, 0xe9, 0xba, 0xef, 0xea, 0xe6,
  0xe1, 0xd8, 0x3d, 0x10, 0x81, 0xc1, 0xf9, 0xfb, 0xd4, 0x0e, 0xe3, 0xfa,
  0x4b, 0x5f, 0x7d, 0xb4, 0xfc, 0x3f, 0x56, 0x55, 0x7c, 0x87, 0x0a, 0x7b,
  0x76, 0x5f, 0xf4, 0x8f, 0x15, 0x10, 0x33, 0x25, 0x33, 0x87, 0xde, 0xbf,
  0x1a, 0x9e, 0x3b, 0x81, 0x99, 0xcd, 0x67, 0xc4, 0xc1, 0xbd, 0xfb, 0xbf,
  0xf1, 0x2a, 0x01, 0x32, 0xf4, 0xeb, 0x2e, 0x07, 0x2a, 0xcd, 0x92, 0x31,
  0xff, 0x02, 0xe3, 0xe0, 0x41, 0x01, 0xf9, 0xd5, 0x81, 0xe2, 0xf9, 0xff,
  0x34, 0xfb, 0x0e, 0xe9, 0xba, 0xf1, 0xe9, 0xc6, 0x24, 0xda, 0x2e, 0x08,
  0xd4, 0xe4, 0x2e, 0x19, 0x2c, 0xf4, 0x9b, 0xf5, 0x09, 0xce, 0xc8, 0x15,
  0x38, 0xf4, 0x3d, 0xec, 0x7f, 0xfd, 0xd8, 0x3b, 0xba, 0x46, 0xd8, 0xcc,
  0x7e, 0x6b, 0x37, 0xbb, 0x54, 0x55, 0x77, 0xf4, 0x8b, 0x45, 0xa7, 0x11,
  0xf2, 0x4a, 0xf7, 0xf8, 0x4e, 0xd0, 0x99, 0xce, 0x85, 0xda, 0xf5, 0xc6,
  0x59, 0x9f, 0x0b, 0x54, 0x7f, 0x24, 0xa6, 0x2d, 0xf9, 0x04, 0xd8, 0xa9,
  0xa0, 0xa3, 0x05, 0x07, 0x59, 0x27, 0x12, 0x0e, 0xc0, 0x8d, 0xd4, 0x92,
  0x96, 0xb8, 0xdc, 0x15, 0xae, 0xe5, 0x4d, 0x04, 0x5a, 0xb2, 0xa7, 0xa2,
  0x37, 0x81, 0x6b, 0xa8, 0x10, 0xb2, 0xe4, 0x89, 0x56, 0xf1, 0x74, 0xbc,
  0xd7, 0x52, 0x24, 0x3d, 0x1b, 0x95, 0x78, 0x64, 0x4d, 0x36, 0x7f, 0xa6,
  0xbb, 0x4a, 0x53, 0x41, 0x36, 0x2e, 0x7c, 0x24, 0xe4, 0x39, 0xa8, 0x21,
  0x2c, 0x52, 0x90, 0x1b, 0x28, 0x2e, 0xec, 0x20, 0x09, 0xda, 0xa7, 0xee,
  0x46, 0xc0, 0x39, 0x3f, 0x57, 0x99, 0x81, 0x6c, 0xeb, 0xe6, 0x10, 0xc3,
  0x40, 0xe8, 0xae, 0x0d, 0xbb, 0xff, 0xf5, 0x4e, 0x2e, 0x3b, 0x5c, 0x26,
  0xe1, 0x17, 0x12, 0x34, 0xfb, 0xee, 0x15, 0x75, 0x01, 0x09, 0x7f, 0xf3,
  0x46, 0x34, 0xe3, 0x0d, 0x3e, 0x37, 0x02, 0x3f, 0xed, 0x00, 0x57, 0x08,
  0xd7, 0xc8, 0x04, 0xfb, 0x11, 0x1c, 0x3a, 0xe1, 0xee, 0x09, 0x12, 0x12,
  0x2d, 0xff, 0xd3, 0x7f, 0xea, 0x9c, 0xcb, 0x1c, 0x36, 0xf1, 0xfb, 0x1e,
  0xf4, 0xfb, 0x3a, 0xfd, 0xfb, 0xf7, 0xde, 0x04, 0x28, 0xf8, 0xcf, 0x1d,
  0xcb, 0xf9, 0xe9, 0x0b, 0xbb, 0xea, 0x23, 0x1b, 0xd0, 0xd7, 0xee, 0x7f,
  0x15, 0xee, 0x0e, 0xe8, 0x0f, 0xc4, 0x0c, 0x44, 0x1a, 0x09, 0xcd, 0x4f,
  0xd3, 0x13, 0xf0, 0x45, 0xe8, 0xf6, 0x31, 0xfd, 0x8d, 0xb5, 0xac, 0xdc,
  0xd8, 0x2c, 0x81, 0x90, 0x8e, 0xc9, 0x33, 0x64, 0xbe, 0x6c, 0x13, 0x9e,
  0x3c, 0xf8, 0x8c, 0x95, 0x67, 0xb7, 0x40, 0x2f, 0x91, 0x8d, 0xb5, 0xdf,
  0xe1, 0xa6, 0x90, 0x72, 0xe1, 0x2a, 0xf1, 0x26, 0xf5, 0x61, 0x87, 0xa6,
  0xc7, 0x61, 0x2b, 0x44, 0xf2, 0x4a, 0x69, 0x66, 0xa4, 0x85, 0x44, 0x1c,
  0xec, 0xec, 0x81, 0x6e, 0x34, 0x1c, 0x94, 0xae, 0x1d, 0xea, 0x92, 0xf6,
  0x49, 0x8f, 0x75, 0x5d, 0x0b, 0xff, 0x10, 0x81, 0x04, 0x79, 0xaa, 0x19,
  0x1d, 0xed, 0xf5, 0x01, 0xe8, 0x02, 0xab, 0x68, 0xa4, 0x25, 0xa2, 0xa3,
  0xb4, 0xce, 0xfb, 0xdd, 0x7a, 0x21, 0xc2, 0x14, 0xc4, 0x0a, 0x38, 0x37,
  0xdc, 0x31, 0x49, 0x51, 0x2e, 0x30, 0xc4, 0x41, 0x7f, 0xe7, 0x75, 0x4c,
  0xa6, 0xbb, 0xbd, 0x55, 0x0d, 0xe0, 0xf1, 0x5a, 0x25, 0x56, 0x1e, 0xc7,
  0x4c, 0xab, 0xe5, 0x54, 0xb8, 0x81, 0x16, 0xfa, 0xc3, 0x52, 0xd9, 0xd5,
  0xf8, 0x90, 0x9e, 0x54, 0x0e, 0x2d, 0x45, 0x01, 0xe3, 0xfb, 0x5a, 0xed,
  0xd2, 0x0a, 0x07, 0xa1, 0x52, 0x83, 0xba, 0x6c, 0xb0, 0x6f, 0x57, 0x2f,
  0x90, 0x63, 0xcb, 0x4d, 0x8f, 0xf8, 0x33, 0xc3, 0xa6, 0x16, 0xf9, 0x81,
  0xd7, 0x37, 0x32, 0xfd, 0xce, 0x72, 0x1b, 0xe5, 0x84, 0x0d, 0xf5, 0x4b,
  0x5a, 0xc8, 0xfa, 0xd1, 0x5b, 0x29, 0xad, 0x93, 0x26, 0x98, 0xdf, 0xe1,
  0x8b, 0x93, 0x9e, 0x0a, 0xe6, 0x15, 0x59, 0x71, 0x28, 0x0f, 0x8a, 0x4c,
  0xba, 0xfe, 0x59, 0x0f, 0xe0, 0xab, 0x78, 0x7f, 0x13, 0x13, 0xef, 0x1f,
  0x23, 0x4a, 0xcb, 0xed, 0xfe, 0xfc, 0xff, 0xff, 0x04, 0x00, 0x00, 0x00,
  0x80, 0x00, 0x00, 0x00, 0x04, 0xcb, 0xff, 0xff, 0xca, 0xfe, 0xff, 0xff,
  0x13, 0xf8, 0xff, 0xff, 0x15, 0x2f, 0x00, 0x00, 0xaf, 0xed, 0xff, 0xff,
  0xc0, 0xc9, 0xff, 0xff, 0x83, 0x06, 0x00, 0x00, 0xd2, 0xe3, 0xff, 0xff,
  0xec, 0xf5, 0xff, 0xff, 0x69, 0xff, 0xff, 0xff, 0xcd, 0xcd, 0xff, 0xff,
  0xf1, 0xf8, 0xff, 0xff, 0x00, 0x00, 0x00, 0x00, 0x0f, 0x1c, 0x00, 0x00,
  0xec, 0x01, 0x00, 0x00, 0x19, 0x3c, 0x00, 0x00, 0xa3, 0x20, 0x00, 0x00,
  0x3f, 0xd7, 0xff, 0xff, 0x51, 0xfe, 0xff, 0xff, 0x8d, 0xef, 0xff, 0xff,
  0xfd, 0x40, 0x00, 0x00, 0x00, 0x00, 0x00, 0x00, 0xd4, 0x04, 0x00, 0x00,
  0x0c, 0x19, 0x00, 0x00, 0xe5, 0x1e, 0x00, 0x00, 0xad, 0xf7, 0xff, 0xff,
  0x7a, 0xf9, 0xff, 0xff, 0x00, 0x00, 0x00, 0x00, 0xe6, 0xf0, 0xff, 0xff,
  0x00, 0x00, 0x00, 0x00, 0x0e, 0xfd, 0xff, 0xff, 0xad, 0x41, 0x00, 0x00,
  0x8a, 0xfd, 0xff, 0xff, 0x04, 0x00, 0x00, 0x00, 0x00, 0x02, 0x00, 0x00,
  0x4a, 0x81, 0x6a, 0xd3, 0xc1, 0xde, 0x5a, 0xfb, 0x23, 0xed, 0x48, 0xce,
  0x25, 0xf8, 0xf5, 0x4a, 0xc9, 0xf6, 0xba, 0xe1, 0x48, 0x0a, 0x3f, 0x45,
  0x02, 0x0a, 0xc1, 0xbf, 0xfb, 0xdc, 0xcf, 0x31, 0x5f, 0xc6, 0x36, 0x64,
  0x61, 0x85, 0x2c, 0x49, 0xcf, 0x3d, 0x93, 0xad, 0xca, 0xba, 0xd0, 0xa2,
  0xc3, 0x53, 0xf8, 0x00, 0x94, 0x69, 0x2d, 0xf2, 0xda, 0x7f, 0xdb, 0x27,
  0x24, 0xf2, 0x6b, 0x96, 0xea, 0x52, 0x74, 0xaa, 0x38, 0xa0, 0x2b, 0x95,
  0xd6, 0x39, 0x98, 0xe1, 0xa8, 0x1f, 0xbc, 0x60, 0xb1, 0x99, 0x33, 0xac,
  0x8c, 0x8f, 0x35, 0x3d, 0x81, 0x5e, 0x46, 0x18, 0xe5, 0x6f, 0xda, 0xd4,
  0x2a, 0x88, 0xb0, 0xcd, 0x23, 0x05, 0xea, 0x81, 0xc3, 0x53, 0x51, 0x54,
  0x75, 0xf4, 0x9e, 0x92, 0x31, 0x6d, 0x86, 0xb8, 0x18, 0x2d, 0x97, 0x8f,
  0xac, 0x04, 0x6e, 0x71, 0xaa, 0x9a, 0xbf, 0x50, 0xd0, 0xc1, 0x14, 0xec,
  0x1f, 0x02, 0xc2, 0xd3, 0x8f, 0x9b, 0xec, 0xec, 0xd9, 0xde, 0x34, 0x36,
  0xfe, 0x97, 0xae, 0x0b, 0x57, 0x90, 0x7f, 0x02, 0xe4, 0xe5, 0x6e, 0x7b,
  0x0c, 0x72, 0x32, 0xe2, 0xb7, 0x81, 0x31, 0x4f, 0xed, 0xf6, 0x19, 0x39,
  0xe9, 0x8f, 0xea, 0xd9, 0xe4, 0x27, 0x2b, 0x0b, 0x4e, 0xcd, 0xdc, 0xd3,
  0x29, 0xba, 0xfd, 0x56, 0x15, 0xcc, 0x3b, 0x4a, 0xe5, 0x42, 0xd4, 0xe5,
  0x54, 0x2c, 0xbd, 0x95, 0x18, 0xba, 0x2e, 0x56, 0xe0, 0x91, 0x7f, 0xcf,
  0x0d, 0xb0, 0x98, 0xfe, 0x4f, 0xa5, 0xd7, 0x28, 0xbf, 0x5a, 0x69, 0xe4,
  0x18, 0xaa, 0xf7, 0xc6, 0x4e, 0x55, 0x06, 0xc8, 0xa7, 0x81, 0x2b, 0xe1,
  0xbe, 0xd3, 0x3a, 0xb0, 0xe1, 0x2e, 0xd0, 0xe2, 0xd3, 0x1d, 0x73, 0xae,
  0x98, 0x85, 0xf5, 0x6d, 0x3f, 0xae, 0x0a, 0x62, 0xc9, 0x9f, 0x86, 0x75,
  0x0f, 0xaf, 0xc6, 0xbd, 0x88, 0x3f, 0x18, 0x4c, 0xb5, 0xa7, 0x4d, 0xaf,
  0x70, 0xbd, 0xed, 0x04, 0xaf, 0xf6, 0xf8, 0x81, 0xef, 0x0a, 0x1f, 0x0f,
  0x91, 0xe0, 0x61, 0x2d, 0xcd, 0x38, 0x1f, 0xcd, 0xe5, 0x64, 0x05, 0xbe,
  0x25, 0xc9, 0x5e, 0x29, 0xfe, 0x04, 0x74, 0x2a, 0xc6, 0x81, 0xdb, 0x54,
  0x49, 0xba, 0xc6, 0x64, 0x1f, 0x05, 0x03, 0x25, 0xf3, 0x3c, 0x2c, 0xd7,
  0x4e, 0x48, 0xec, 0x50, 0x34, 0xaa, 0xeb, 0x4d, 0xfc, 0x7f, 0x0d, 0xff,
  0xe6, 0x1a, 0x06, 0x3b, 0xea, 0x60, 0x07, 0x12, 0x24, 0xfa, 0x12, 0xf7,
  0xd9, 0x36, 0xe9, 0xce, 0x1d, 0x1d, 0x2f, 0x13, 0x02, 0xec, 0x07, 0xed,
  0x0f, 0x20, 0xe9, 0xd2, 0x1a, 0x7f, 0xbb, 0x0e, 0x0f, 0x29, 0x15, 0x2e,
  0x41, 0x77, 0x21, 0x12, 0x38, 0x33, 0xfe, 0xe0, 0xf7, 0xf6, 0xf0, 0xb3,
  0x2e, 0xc4, 0xc3, 0x2b, 0xd2, 0x3f, 0x08, 0xe6, 0xd2, 0xcf, 0x01, 0x0d,
  0xf1, 0x41, 0x84, 0x44, 0xee, 0xd0, 0x5e, 0x2c, 0xf1, 0xea, 0x81, 0xa0,
  0xad, 0xfa, 0xfd, 0x27, 0x02, 0xc2, 0x69, 0x8e, 0xf7, 0xec, 0xb1, 0x9b,
  0x0b, 0x38, 0x25, 0xf5, 0x69, 0x6d, 0xcb, 0xc7, 0x01, 0xff, 0x8e, 0x79,
  0xf8, 0x3b, 0xd6, 0x69, 0x95, 0xfa, 0x56, 0x68, 0x86, 0x83, 0xae, 0x81,
  0xce, 0x9b, 0x50, 0xcf, 0xe1, 0xce, 0xa6, 0xde, 0xcd, 0x82, 0x4c, 0x8c,
  0x60, 0x7e, 0x56, 0xe0, 0xef, 0x7f, 0xbb, 0xec, 0x36, 0x9a, 0xf8, 0xa7,
  0x21, 0x6f, 0xf5, 0x44, 0xfd, 0x2e, 0x8e, 0x29, 0xa2, 0x4a, 0x37, 0xec,
  0xd0, 0x2c, 0xf9, 0x04, 0x04, 0x31, 0x30, 0xeb, 0xd6, 0xc5, 0xed, 0x45,
  0x11, 0x81, 0x1c, 0xf6, 0x2b, 0x17, 0x5f, 0x39, 0xe8, 0xc5, 0xf3, 0xfa,
  0xf2, 0xc5, 0x05, 0xe3, 0xd2, 0xf0, 0x3e, 0xcb, 0x26, 0xd0, 0x16, 0xe3,
  0xe1, 0xd4, 0x14, 0xf3, 0xf9, 0xf8, 0x47, 0x18, 0x96, 0xff, 0xff, 0xff,
  0x04, 0x00, 0x00, 0x00, 0x40, 0x00, 0x00, 0x00, 0xd9, 0x15, 0x00, 0x00,
  0x0e, 0x07, 0x00, 0x00, 0x1b, 0xfc, 0xff, 0xff, 0x00, 0x00, 0x00, 0x00,
  0xc1, 0xd9, 0xff, 0xff, 0x6f, 0x17, 0x00, 0x00, 0xb5, 0xdd, 0xff, 0xff,
  0x8c, 0xfa, 0xff, 0xff, 0x00, 0x00, 0x00, 0x00, 0x50, 0x1c, 0x00, 0x00,
  0x87, 0xee, 0xff, 0xff, 0x3e, 0xed, 0xff, 0xff, 0xa8, 0xf8, 0xff, 0xff,
  0x00, 0x00, 0x00, 0x00, 0xfb, 0x02, 0x00, 0x00, 0x9f, 0x13, 0x00, 0x00,
  0xe2, 0xff, 0xff, 0xff, 0x04, 0x00, 0x00, 0x00, 0x10, 0x00, 0x00, 0x00,
  0x3f, 0x2a, 0xf6, 0x01, 0xe9, 0x43, 0xd0, 0xf6, 0xda, 0x15, 0xd8, 0xe0,
  0xc7, 0x0f, 0x81, 0x11, 0x00, 0x00, 0x06, 0x00, 0x08, 0x00, 0x04, 0x00,
  0x06, 0x00, 0x00, 0x00, 0x04, 0x00, 0x00, 0x00, 0x04, 0x00, 0x00, 0x00,
  0x3a, 0x09, 0x00, 0x00, 0x88, 0xd9, 0xff, 0xff, 0x8c, 0xd9, 0xff, 0xff,
  0x0f, 0x00, 0x00, 0x00, 0x4d, 0x4c, 0x49, 0x52, 0x20, 0x43, 0x6f, 0x6e,
  0x76, 0x65, 0x72, 0x74, 0x65, 0x64, 0x2e, 0x00, 0x01, 0x00, 0x00, 0x00,
  0x14, 0x00, 0x00, 0x00, 0x00, 0x00, 0x0e, 0x00, 0x18, 0x00, 0x14, 0x00,
  0x10, 0x00, 0x0c, 0x00, 0x08, 0x00, 0x04, 0x00, 0x0e, 0x00, 0x00, 0x00,
  0x14, 0x00, 0x00, 0x00, 0x1c, 0x00, 0x00, 0x00, 0xa8, 0x02, 0x00, 0x00,
  0xac, 0x02, 0x00, 0x00, 0xb0, 0x02, 0x00, 0x00, 0x04, 0x00, 0x00, 0x00,
  0x6d, 0x61, 0x69, 0x6e, 0x00, 0x00, 0x00, 0x00, 0x0b, 0x00, 0x00, 0x00,
  0x70, 0x02, 0x00, 0x00, 0x20, 0x02, 0x00, 0x00, 0xd4, 0x01, 0x00, 0x00,
  0x98, 0x01, 0x00, 0x00, 0x5c, 0x01, 0x00, 0x00, 0x20, 0x01, 0x00, 0x00,
  0xe4, 0x00, 0x00, 0x00, 0xa8, 0x00, 0x00, 0x00, 0x6c, 0x00, 0x00, 0x00,
  0x34, 0x00, 0x00, 0x00, 0x10, 0x00, 0x00, 0x00, 0x00, 0x00, 0x0a, 0x00,
  0x10, 0x00, 0x0c, 0x00, 0x08, 0x00, 0x04, 0x00, 0x0a, 0x00, 0x00, 0x00,
  0x0c, 0x00, 0x00, 0x00, 0x10, 0x00, 0x00, 0x00, 0x02, 0x00, 0x00, 0x00,
  0x01, 0x00, 0x00, 0x00, 0x1d, 0x00, 0x00, 0x00, 0x01, 0x00, 0x00, 0x00,
  0x1c, 0x00, 0x00, 0x00, 0x42, 0xfe, 0xff, 0xff, 0x14, 0x00, 0x00, 0x00,
  0x00, 0x00, 0x00, 0x08, 0x10, 0x00, 0x00, 0x00, 0x14, 0x00, 0x00, 0x00,
  0x01, 0x00, 0x00, 0x00, 0x54, 0xda, 0xff, 0xff, 0x01, 0x00, 0x00, 0x00,
  0x1c, 0x00, 0x00, 0x00, 0x03, 0x00, 0x00, 0x00, 0x1b, 0x00, 0x00, 0x00,
  0x02, 0x00, 0x00, 0x00, 0x01, 0x00, 0x00, 0x00, 0x76, 0xfe, 0xff, 0xff,
  0x14, 0x00, 0x00, 0x00, 0x00, 0x00, 0x00, 0x08, 0x14, 0x00, 0x00, 0x00,
  0x18, 0x00, 0x00, 0x00, 0x01, 0x00, 0x00, 0x00, 0x66, 0xfe, 0xff, 0xff,
  0x00, 0x00, 0x00, 0x01, 0x01, 0x00, 0x00, 0x00, 0x1b, 0x00, 0x00, 0x00,
  0x03, 0x00, 0x00, 0x00, 0x1a, 0x00, 0x00, 0x00, 0x04, 0x00, 0x00, 0x00,
  0x03, 0x00, 0x00, 0x00, 0xae, 0xfe, 0xff, 0xff, 0x14, 0x00, 0x00, 0x00,
  0x00, 0x00, 0x00, 0x08, 0x14, 0x00, 0x00, 0x00, 0x18, 0x00, 0x00, 0x00,
  0x01, 0x00, 0x00, 0x00, 0x9e, 0xfe, 0xff, 0xff, 0x00, 0x00, 0x00, 0x01,
  0x01, 0x00, 0x00, 0x00, 0x1a, 0x00, 0x00, 0x00, 0x03, 0x00, 0x00, 0x00,
  0x19, 0x00, 0x00, 0x00, 0x06, 0x00, 0x00, 0x00, 0x05, 0x00, 0x00, 0x00,
  0xe6, 0xfe, 0xff, 0xff, 0x14, 0x00, 0x00, 0x00, 0x00, 0x00, 0x00, 0x08,
  0x14, 0x00, 0x00, 0x00, 0x18, 0x00, 0x00, 0x00, 0x01, 0x00, 0x00, 0x00,
  0xd6, 0xfe, 0xff, 0xff, 0x00, 0x00, 0x00, 0x01, 0x01, 0x00, 0x00, 0x00,
  0x19, 0x00, 0x00, 0x00, 0x03, 0x00, 0x00, 0x00, 0x18, 0x00, 0x00, 0x00,
  0x08, 0x00, 0x00, 0x00, 0x07, 0x00, 0x00, 0x00, 0x1e, 0xff, 0xff, 0xff,
  0x14, 0x00, 0x00, 0x00, 0x00, 0x00, 0x00, 0x08, 0x14, 0x00, 0x00, 0x00,
  0x18, 0x00, 0x00, 0x00, 0x01, 0x00, 0x00, 0x00, 0x0e, 0xff, 0xff, 0xff,
  0x00, 0x00, 0x00, 0x01, 0x01, 0x00, 0x00, 0x00, 0x18, 0x00, 0x00, 0x00,
  0x03, 0x00, 0x00, 0x00, 0x17, 0x00, 0x00, 0x00, 0x0a, 0x00, 0x00, 0x00,
  0x09, 0x00, 0x00, 0x00, 0x56, 0xff, 0xff, 0xff, 0x14, 0x00, 0x00, 0x00,
  0x00, 0x00, 0x00, 0x08, 0x14, 0x00, 0x00, 0x00, 0x18, 0x00, 0x00, 0x00,
  0x01, 0x00, 0x00, 0x00, 0x46, 0xff, 0xff, 0xff, 0x00, 0x00, 0x00, 0x01,
  0x01, 0x00, 0x00, 0x00, 0x17, 0x00, 0x00, 0x00, 0x03, 0x00, 0x00, 0x00,
  0x16, 0x00, 0x00, 0x00, 0x0c, 0x00, 0x00, 0x00, 0x0b, 0x00, 0x00, 0x00,
  0x8e, 0xff, 0xff, 0xff, 0x14, 0x00, 0x00, 0x00, 0x00, 0x00, 0x00, 0x08,
  0x14, 0x00, 0x00, 0x00, 0x18, 0x00, 0x00, 0x00, 0x01, 0x00, 0x00, 0x00,
  0x7e, 0xff, 0xff, 0xff, 0x00, 0x00, 0x00, 0x01, 0x01, 0x00, 0x00, 0x00,
  0x16, 0x00, 0x00, 0x00, 0x03, 0x00, 0x00, 0x00, 0x15, 0x00, 0x00, 0x00,
  0x0e, 0x00, 0x00, 0x00, 0x0d, 0x00, 0x00, 0x00, 0xc6, 0xff, 0xff, 0xff,
  0x14, 0x00, 0x00, 0x00, 0x00, 0x00, 0x00, 0x08, 0x14, 0x00, 0x00, 0x00,
  0x18, 0x00, 0x00, 0x00, 0x01, 0x00, 0x00, 0x00, 0xb6, 0xff, 0xff, 0xff,
  0x00, 0x00, 0x00, 0x01, 0x01, 0x00, 0x00, 0x00, 0x15, 0x00, 0x00, 0x00,
  0x03, 0x00, 0x00, 0x00, 0x14, 0x00, 0x00, 0x00, 0x10, 0x00, 0x00, 0x00,
  0x0f, 0x00, 0x00, 0x00, 0x00, 0x00, 0x0e, 0x00, 0x1a, 0x00, 0x14, 0x00,
  0x10, 0x00, 0x0c, 0x00, 0x0b, 0x00, 0x04, 0x00, 0x0e, 0x00, 0x00, 0x00,
  0x1c, 0x00, 0x00, 0x00, 0x00, 0x00, 0x00, 0x08, 0x1c, 0x00, 0x00, 0x00,
  0x20, 0x00, 0x00, 0x00, 0x01, 0x00, 0x00, 0x00, 0x00, 0x00, 0x06, 0x00,
  0x08, 0x00, 0x07, 0x00, 0x06, 0x00, 0x00, 0x00, 0x00, 0x00, 0x00, 0x01,
  0x01, 0x00, 0x00, 0x00, 0x14, 0x00, 0x00, 0x00, 0x03, 0x00, 0x00, 0x00,
  0x13, 0x00, 0x00, 0x00, 0x12, 0x00, 0x00, 0x00, 0x11, 0x00, 0x00, 0x00,
  0x00, 0x00, 0x0a, 0x00, 0x0c, 0x00, 0x00, 0x00, 0x08, 0x00, 0x04, 0x00,
  0x0a, 0x00, 0x00, 0x00, 0x08, 0x00, 0x00, 0x00, 0x0c, 0x00, 0x00, 0x00,
  0x01, 0x00, 0x00, 0x00, 0x13, 0x00, 0x00, 0x00, 0x01, 0x00, 0x00, 0x00,
  0x00, 0x00, 0x00, 0x00, 0x01, 0x00, 0x00, 0x00, 0x1d, 0x00, 0x00, 0x00,
  0x01, 0x00, 0x00, 0x00, 0x00, 0x00, 0x00, 0x00, 0x1e, 0x00, 0x00, 0x00,
  0x54, 0x23, 0x00, 0x00, 0xd0, 0x22, 0x00, 0x00, 0x50, 0x22, 0x00, 0x00,
  0x3c, 0x21, 0x00, 0x00, 0x20, 0x20, 0x00, 0x00, 0x4c, 0x1e, 0x00, 0x00,
  0x70, 0x1c, 0x00, 0x00, 0x9c, 0x1a, 0x00, 0x00, 0xc0, 0x18, 0x00, 0x00,
  0xec, 0x16, 0x00, 0x00, 0x10, 0x15, 0x00, 0x00, 0x3c, 0x13, 0x00, 0x00,
  0x60, 0x11, 0x00, 0x00, 0x8c, 0x0f, 0x00, 0x00, 0xb0, 0x0d, 0x00, 0x00,
  0xdc, 0x0b, 0x00, 0x00, 0x00, 0x0a, 0x00, 0x00, 0xec, 0x08, 0x00, 0x00,
  0xd0, 0x07, 0x00, 0x00, 0x5c, 0x07, 0x00, 0x00, 0x78, 0x06, 0x00, 0x00,
  0xac, 0x05, 0x00, 0x00, 0xe0, 0x04, 0x00, 0x00, 0x14, 0x04, 0x00, 0x00,
  0x48, 0x03, 0x00, 0x00, 0x7c, 0x02, 0x00, 0x00, 0xb0, 0x01, 0x00, 0x00,
  0xe4, 0x00, 0x00, 0x00, 0x60, 0x00, 0x00, 0x00, 0x04, 0x00, 0x00, 0x00,
  0x3a, 0xdd, 0xff, 0xff, 0x00, 0x00, 0x00, 0x01, 0x14, 0x00, 0x00, 0x00,
  0x1c, 0x00, 0x00, 0x00, 0x1c, 0x00, 0x00, 0x00, 0x1e, 0x00, 0x00, 0x00,
  0x34, 0x00, 0x00, 0x00, 0x02, 0x00, 0x00, 0x00, 0xff, 0xff, 0xff, 0xff,
  0x01, 0x00, 0x00, 0x00, 0x24, 0xdd, 0xff, 0xff, 0x1b, 0x00, 0x00, 0x00,
  0x53, 0x74, 0x61, 0x74, 0x65, 0x66, 0x75, 0x6c, 0x50, 0x61, 0x72, 0x74,
  0x69, 0x74, 0x69, 0x6f, 0x6e, 0x65, 0x64, 0x43, 0x61, 0x6c, 0x6c, 0x5f,
  0x31, 0x3a, 0x30, 0x00, 0x02, 0x00, 0x00, 0x00, 0x01, 0x00, 0x00, 0x00,
  0x01, 0x00, 0x00, 0x00, 0x3e, 0xf9, 0xff, 0xff, 0x00, 0x00, 0x00, 0x01,
  0x18, 0x00, 0x00, 0x00, 0x20, 0x00, 0x00, 0x00, 0x40, 0x00, 0x00, 0x00,
  0x1d, 0x00, 0x00, 0x00, 0x00, 0x00, 0x00, 0x09, 0x58, 0x00, 0x00, 0x00,
  0x02, 0x00, 0x00, 0x00, 0xff, 0xff, 0xff, 0xff, 0x01, 0x00, 0x00, 0x00,
  0x0c, 0xde, 0xff, 0xff, 0x08, 0x00, 0x00, 0x00, 0x14, 0x00, 0x00, 0x00,
  0x01, 0x00, 0x00, 0x00, 0x80, 0xff, 0xff, 0xff, 0xff, 0xff, 0xff, 0xff,
  0x00, 0x00, 0x00, 0x00, 0x01, 0x00, 0x00, 0x00, 0x37, 0x87, 0xe8, 0x3b,
  0x1c, 0x00, 0x00, 0x00, 0x53, 0x74, 0x61, 0x74, 0x65, 0x66, 0x75, 0x6c,
  0x50, 0x61, 0x72, 0x74, 0x69, 0x74, 0x69, 0x6f, 0x6e, 0x65, 0x64, 0x43,
  0x61, 0x6c, 0x6c, 0x5f, 0x31, 0x3a, 0x30, 0x31, 0x00, 0x00, 0x00, 0x00,
  0x02, 0x00, 0x00, 0x00, 0x01, 0x00, 0x00, 0x00, 0x01, 0x00, 0x00, 0x00,
  0xbe, 0xf9, 0xff, 0xff, 0x00, 0x00, 0x00, 0x01, 0x18, 0x00, 0x00, 0x00,
  0x20, 0x00, 0x00, 0x00, 0x40, 0x00, 0x00, 0x00, 0x1c, 0x00, 0x00, 0x00,
  0x00, 0x00, 0x00, 0x09, 0xa0, 0x00, 0x00, 0x00, 0x02, 0x00, 0x00, 0x00,
  0xff, 0xff, 0xff, 0xff, 0x10, 0x00, 0x00, 0x00, 0x8c, 0xde, 0xff, 0xff,
  0x08, 0x00, 0x00, 0x00, 0x14, 0x00, 0x00, 0x00, 0x01, 0x00, 0x00, 0x00,
  0x80, 0xff, 0xff, 0xff, 0xff, 0xff, 0xff, 0xff, 0x00, 0x00, 0x00, 0x00,
  0x01, 0x00, 0x00, 0x00, 0xa0, 0xd2, 0x15, 0x3c, 0x64, 0x00, 0x00, 0x00,
  0x73, 0x65, 0x71, 0x75, 0x65, 0x6e, 0x74, 0x69, 0x61, 0x6c, 0x5f, 0x31,
  0x39, 0x5f, 0x31, 0x2f, 0x64, 0x65, 0x6e, 0x73, 0x65, 0x5f, 0x35, 0x39,
  0x5f, 0x31, 0x2f, 0x4d, 0x61, 0x74, 0x4d, 0x75, 0x6c, 0x3b, 0x73, 0x65,
  0x71, 0x75, 0x65, 0x6e, 0x74, 0x69, 0x61, 0x6c, 0x5f, 0x31, 0x39, 0x5f,
  0x31, 0x2f, 0x64, 0x65, 0x6e, 0x73, 0x65, 0x5f, 0x35, 0x39, 0x5f, 0x31,
  0x2f, 0x52, 0x65, 0x6c, 0x75, 0x3b, 0x73, 0x65, 0x71, 0x75, 0x65, 0x6e,
  0x74, 0x69, 0x61, 0x6c, 0x5f, 0x31, 0x39, 0x5f, 0x31, 0x2f, 0x64, 0x65,
  0x6e, 0x73, 0x65, 0x5f, 0x35, 0x39, 0x5f, 0x31, 0x2f, 0x42, 0x69, 0x61,
  0x73, 0x41, 0x64, 0x64, 0x00, 0x00, 0x00, 0x00, 0x02, 0x00, 0x00, 0x00,
  0x01, 0x00, 0x00, 0x00, 0x10, 0x00, 0x00, 0x00, 0x86, 0xfa, 0xff, 0xff,
  0x00, 0x00, 0x00, 0x01, 0x18, 0x00, 0x00, 0x00, 0x20, 0x00, 0x00, 0x00,
  0x40, 0x00, 0x00, 0x00, 0x1b, 0x00, 0x00, 0x00, 0x00, 0x00, 0x00, 0x09,
  0xa0, 0x00, 0x00, 0x00, 0x02, 0x00, 0x00, 0x00, 0xff, 0xff, 0xff, 0xff,
  0x20, 0x00, 0x00, 0x00, 0x54, 0xdf, 0xff, 0xff, 0x08, 0x00, 0x00, 0x00,
  0x14, 0x00, 0x00, 0x00, 0x01, 0x00, 0x00, 0x00, 0x80, 0xff, 0xff, 0xff,
  0xff, 0xff, 0xff, 0xff, 0x00, 0x00, 0x00, 0x00, 0x01, 0x00, 0x00, 0x00,
  0xd3, 0xbe, 0xe4, 0x3b, 0x64, 0x00, 0x00, 0x00, 0x73, 0x65, 0x71, 0x75,
  0x65, 0x6e, 0x74, 0x69, 0x61, 0x6c, 0x5f, 0x31, 0x39, 0x5f, 0x31, 0x2f,
  0x64, 0x65, 0x6e, 0x73, 0x65, 0x5f, 0x35, 0x38, 0x5f, 0x31, 0x2f, 0x4d,
  0x61, 0x74, 0x4d, 0x75, 0x6c, 0x3b, 0x73, 0x65, 0x71, 0x75, 0x65, 0x6e,
  0x74, 0x69, 0x61, 0x6c, 0x5f, 0x31, 0x39, 0x5f, 0x31, 0x2f, 0x64, 0x65,
  0x6e, 0x73, 0x65, 0x5f, 0x35, 0x38, 0x5f, 0x31, 0x2f, 0x52, 0x65, 0x6c,
  0x75, 0x3b, 0x73, 0x65, 0x71, 0x75, 0x65, 0x6e, 0x74, 0x69, 0x61, 0x6c,
  0x5f, 0x31, 0x39, 0x5f, 0x31, 0x2f, 0x64, 0x65, 0x6e, 0x73, 0x65, 0x5f,
  0x35, 0x38, 0x5f, 0x31, 0x2f, 0x42, 0x69, 0x61, 0x73, 0x41, 0x64, 0x64,
  0x00, 0x00, 0x00, 0x00, 0x02, 0x00, 0x00, 0x00, 0x01, 0x00, 0x00, 0x00,
  0x20, 0x00, 0x00, 0x00, 0x4e, 0xfb, 0xff, 0xff, 0x00, 0x00, 0x00, 0x01,
  0x18, 0x00, 0x00, 0x00, 0x20, 0x00, 0x00, 0x00, 0x40, 0x00, 0x00, 0x00,
  0x1a, 0x00, 0x00, 0x00, 0x00, 0x00, 0x00, 0x09, 0xa0, 0x00, 0x00, 0x00,
  0x02, 0x00, 0x00, 0x00, 0xff, 0xff, 0xff, 0xff, 0x20, 0x00, 0x00, 0x00,
  0x1c, 0xe0, 0xff, 0xff, 0x08, 0x00, 0x00, 0x00, 0x14, 0x00, 0x00, 0x00,
  0x01, 0x00, 0x00, 0x00, 0x80, 0xff, 0xff, 0xff, 0xff, 0xff, 0xff, 0xff,
  0x00, 0x00, 0x00, 0x00, 0x01, 0x00, 0x00, 0x00, 0x2e, 0x1d, 0xa4, 0x3b,
  0x64, 0x00, 0x00, 0x00, 0x73, 0x65, 0x71, 0x75, 0x65, 0x6e, 0x74, 0x69,
  0x61, 0x6c, 0x5f, 0x31, 0x39, 0x5f, 0x31, 0x2f, 0x64, 0x65, 0x6e, 0x73,
  0x65, 0x5f, 0x35, 0x37, 0x5f, 0x31, 0x2f, 0x4d, 0x61, 0x74, 0x4d, 0x75,
  0x6c, 0x3b, 0x73, 0x65, 0x71, 0x75, 0x65, 0x6e, 0x74, 0x69, 0x61, 0x6c,
  0x5f, 0x31, 0x39, 0x5f, 0x31, 0x2f, 0x64, 0x65, 0x6e, 0x73, 0x65, 0x5f,
  0x35, 0x37, 0x5f, 0x31, 0x2f, 0x52, 0x65, 0x6c, 0x75, 0x3b, 0x73, 0x65,
  0x71, 0x75, 0x65, 0x6e, 0x74, 0x69, 0x61, 0x6c, 0x5f, 0x31, 0x39, 0x5f,
  0x31, 0x2f, 0x64, 0x65, 0x6e, 0x73, 0x65, 0x5f, 0x35, 0x37, 0x5f, 0x31,
  0x2f, 0x42, 0x69, 0x61, 0x73, 0x41, 0x64, 0x64, 0x00, 0x00, 0x00, 0x00,
  0x02, 0x00, 0x00, 0x00, 0x01, 0x00, 0x00, 0x00, 0x20, 0x00, 0x00, 0x00,
  0x16, 0xfc, 0xff, 0xff, 0x00, 0x00, 0x00, 0x01, 0x18, 0x00, 0x00, 0x00,
  0x20, 0x00, 0x00, 0x00, 0x40, 0x00, 0x00, 0x00, 0x19, 0x00, 0x00, 0x00,
  0x00, 0x00, 0x00, 0x09, 0xa0, 0x00, 0x00, 0x00, 0x02, 0x00, 0x00, 0x00,
  0xff, 0xff, 0xff, 0xff, 0x20, 0x00, 0x00, 0x00, 0xe4, 0xe0, 0xff, 0xff,
  0x08, 0x00, 0x00, 0x00, 0x14, 0x00, 0x00, 0x00, 0x01, 0x00, 0x00, 0x00,
  0x80, 0xff, 0xff, 0xff, 0xff, 0xff, 0xff, 0xff, 0x00, 0x00, 0x00, 0x00,
  0x01, 0x00, 0x00, 0x00, 0xa3, 0x29, 0x67, 0x3b, 0x64, 0x00, 0x00, 0x00,
  0x73, 0x65, 0x71, 0x75, 0x65, 0x6e, 0x74, 0x69, 0x61, 0x6c, 0x5f, 0x31,
  0x39, 0x5f, 0x31, 0x2f, 0x64, 0x65, 0x6e, 0x73, 0x65, 0x5f, 0x35, 0x36,
  0x5f, 0x31, 0x2f, 0x4d, 0x61, 0x74, 0x4d, 0x75, 0x6c, 0x3b, 0x73, 0x65,
  0x71, 0x75, 0x65, 0x6e, 0x74, 0x69, 0x61, 0x6c, 0x5f, 0x31, 0x39, 0x5f,
  0x31, 0x2f, 0x64, 0x65, 0x6e, 0x73, 0x65, 0x5f, 0x35, 0x36, 0x5f, 0x31,
  0x2f, 0x52, 0x65, 0x6c, 0x75, 0x3b, 0x73, 0x65, 0x71, 0x75, 0x65, 0x6e,
  0x74, 0x69, 0x61, 0x6c, 0x5f, 0x31, 0x39, 0x5f, 0x31, 0x2f, 0x64, 0x65,
  0x6e, 0x73, 0x65, 0x5f, 0x35, 0x36, 0x5f, 0x31, 0x2f, 0x42, 0x69, 0x61,
  0x73, 0x41, 0x64, 0x64, 0x00, 0x00, 0x00, 0x00, 0x02, 0x00, 0x00, 0x00,
  0x01, 0x00, 0x00, 0x00, 0x20, 0x00, 0x00, 0x00, 0xde, 0xfc, 0xff, 0xff,
  0x00, 0x00, 0x00, 0x01, 0x18, 0x00, 0x00, 0x00, 0x20, 0x00, 0x00, 0x00,
  0x40, 0x00, 0x00, 0x00, 0x18, 0x00, 0x00, 0x00, 0x00, 0x00, 0x00, 0x09,
  0xa0, 0x00, 0x00, 0x00, 0x02, 0x00, 0x00, 0x00, 0xff, 0xff, 0xff, 0xff,
  0x20, 0x00, 0x00, 0x00, 0xac, 0xe1, 0xff, 0xff, 0x08, 0x00, 0x00, 0x00,
  0x14, 0x00, 0x00, 0x00, 0x01, 0x00, 0x00, 0x00, 0x80, 0xff, 0xff, 0xff,
  0xff, 0xff, 0xff, 0xff, 0x00, 0x00, 0x00, 0x00, 0x01, 0x00, 0x00, 0x00,
  0x7c, 0x0d, 0x29, 0x3b, 0x64, 0x00, 0x00, 0x00, 0x73, 0x65, 0x71, 0x75,
  0x65, 0x6e, 0x74, 0x69, 0x61, 0x6c, 0x5f, 0x31, 0x39, 0x5f, 0x31, 0x2f,
  0x64, 0x65, 0x6e, 0x73, 0x65, 0x5f, 0x35, 0x35, 0x5f, 0x31, 0x2f, 0x4d,
  0x61, 0x74, 0x4d, 0x75, 0x6c, 0x3b, 0x73, 0x65, 0x71, 0x75, 0x65, 0x6e,
  0x74, 0x69, 0x61, 0x6c, 0x5f, 0x31, 0x39, 0x5f, 0x31, 0x2f, 0x64, 0x65,
  0x6e, 0x73, 0x65, 0x5f, 0x35, 0x35, 0x5f, 0x31, 0x2f, 0x52, 0x65, 0x6c,
  0x75, 0x3b, 0x73, 0x65, 0x71, 0x75, 0x65, 0x6e, 0x74, 0x69, 0x61, 0x6c,
  0x5f, 0x31, 0x39, 0x5f, 0x31, 0x2f, 0x64, 0x65, 0x6e, 0x73, 0x65, 0x5f,
  0x35, 0x35, 0x5f, 0x31, 0x2f, 0x42, 0x69, 0x61, 0x73, 0x41, 0x64, 0x64,
  0x00, 0x00, 0x00, 0x00, 0x02, 0x00, 0x00, 0x00, 0x01, 0x00, 0x00, 0x00,
  0x20, 0x00, 0x00, 0x00, 0xa6, 0xfd, 0xff, 0xff, 0x00, 0x00, 0x00, 0x01,
  0x18, 0x00, 0x00, 0x00, 0x20, 0x00, 0x00, 0x00, 0x40, 0x00, 0x00, 0x00,
  0x17, 0x00, 0x00, 0x00, 0x00, 0x00, 0x00, 0x09, 0xa0, 0x00, 0x00, 0x00,
  0x02, 0x00, 0x00, 0x00, 0xff, 0xff, 0xff, 0xff, 0x20, 0x00, 0x00, 0x00,
  0x74, 0xe2, 0xff, 0xff, 0x08, 0x00, 0x00, 0x00, 0x14, 0x00, 0x00, 0x00,
  0x01, 0x00, 0x00, 0x00, 0x80, 0xff, 0xff, 0xff, 0xff, 0xff, 0xff, 0xff,
  0x00, 0x00, 0x00, 0x00, 0x01, 0x00, 0x00, 0x00, 0x0b, 0x63, 0x13, 0x3b,
  0x64, 0x00, 0x00, 0x00, 0x73, 0x65, 0x71, 0x75, 0x65, 0x6e, 0x74, 0x69,
  0x61, 0x6c, 0x5f, 0x31, 0x39, 0x5f, 0x31, 0x2f, 0x64, 0x65, 0x6e, 0x73,
  0x65, 0x5f, 0x35, 0x34, 0x5f, 0x31, 0x2f, 0x4d, 0x61, 0x74, 0x4d, 0x75,
  0x6c, 0x3b, 0x73, 0x65, 0x71, 0x75, 0x65, 0x6e, 0x74, 0x69, 0x61, 0x6c,
  0x5f, 0x31, 0x39, 0x5f, 0x31, 0x2f, 0x64, 0x65, 0x6e, 0x73, 0x65, 0x5f,
  0x35, 0x34, 0x5f, 0x31, 0x2f, 0x52, 0x65, 0x6c, 0x75, 0x3b, 0x73, 0x65,
  0x71, 0x75, 0x65, 0x6e, 0x74, 0x69, 0x61, 0x6c, 0x5f, 0x31, 0x39, 0x5f,
  0x31, 0x2f, 0x64, 0x65, 0x6e, 0x73, 0x65, 0x5f, 0x35, 0x34, 0x5f, 0x31,
  0x2f, 0x42, 0x69, 0x61, 0x73, 0x41, 0x64, 0x64, 0x00, 0x00, 0x00, 0x00,
  0x02, 0x00, 0x00, 0x00, 0x01, 0x00, 0x00, 0x00, 0x20, 0x00, 0x00, 0x00,
  0x6e, 0xfe, 0xff, 0xff, 0x00, 0x00, 0x00, 0x01, 0x18, 0x00, 0x00, 0x00,
  0x20, 0x00, 0x00, 0x00, 0x40, 0x00, 0x00, 0x00, 0x16, 0x00, 0x00, 0x00,
  0x00, 0x00, 0x00, 0x09, 0xa0, 0x00, 0x00, 0x00, 0x02, 0x00, 0x00, 0x00,
  0xff, 0xff, 0xff, 0xff, 0x20, 0x00, 0x00, 0x00, 0x3c, 0xe3, 0xff, 0xff,
  0x08, 0x00, 0x00, 0x00, 0x14, 0x00, 0x00, 0x00, 0x01, 0x00, 0x00, 0x00,
  0x80, 0xff, 0xff, 0xff, 0xff, 0xff, 0xff, 0xff, 0x00, 0x00, 0x00, 0x00,
  0x01, 0x00, 0x00, 0x00, 0xab, 0x0b, 0x01, 0x3b, 0x64, 0x00, 0x00, 0x00,
  0x73, 0x65, 0x71, 0x75, 0x65, 0x6e, 0x74, 0x69, 0x61, 0x6c, 0x5f, 0x31,
  0x39, 0x5f, 0x31, 0x2f, 0x64, 0x65, 0x6e, 0x73, 0x65, 0x5f, 0x35, 0x33,
  0x5f, 0x31, 0x2f, 0x4d, 0x61, 0x74, 0x4d, 0x75, 0x6c, 0x3b, 0x73, 0x65,
  0x71, 0x75, 0x65, 0x6e, 0x74, 0x69, 0x61, 0x6c, 0x5f, 0x31, 0x39, 0x5f,
  0x31, 0x2f, 0x64, 0x65, 0x6e, 0x73, 0x65, 0x5f, 0x35, 0x33, 0x5f, 0x31,
  0x2f, 0x52, 0x65, 0x6c, 0x75, 0x3b, 0x73, 0x65, 0x71, 0x75, 0x65, 0x6e,
  0x74, 0x69, 0x61, 0x6c, 0x5f, 0x31, 0x39, 0x5f, 0x31, 0x2f, 0x64, 0x65,
  0x6e, 0x73, 0x65, 0x5f, 0x35, 0x33, 0x5f, 0x31, 0x2f, 0x42, 0x69, 0x61,
  0x73, 0x41, 0x64, 0x64, 0x00, 0x00, 0x00, 0x00, 0x02, 0x00, 0x00, 0x00,
  0x01, 0x00, 0x00, 0x00, 0x20, 0x00, 0x00, 0x00, 0x36, 0xff, 0xff, 0xff,
  0x00, 0x00, 0x00, 0x01, 0x18, 0x00, 0x00, 0x00, 0x20, 0x00, 0x00, 0x00,
  0x40, 0x00, 0x00, 0x00, 0x15, 0x00, 0x00, 0x00, 0x00, 0x00, 0x00, 0x09,
  0xa0, 0x00, 0x00, 0x00, 0x02, 0x00, 0x00, 0x00, 0xff, 0xff, 0xff, 0xff,
  0x10, 0x00, 0x00, 0x00, 0x04, 0xe4, 0xff, 0xff, 0x08, 0x00, 0x00, 0x00,
  0x14, 0x00, 0x00, 0x00, 0x01, 0x00, 0x00, 0x00, 0x80, 0xff, 0xff, 0xff,
  0xff, 0xff, 0xff, 0xff, 0x00, 0x00, 0x00, 0x00, 0x01, 0x00, 0x00, 0x00,
  0x16, 0x50, 0xf0, 0x3a, 0x64, 0x00, 0x00, 0x00, 0x73, 0x65, 0x71, 0x75,
  0x65, 0x6e, 0x74, 0x69, 0x61, 0x6c, 0x5f, 0x31, 0x39, 0x5f, 0x31, 0x2f,
  0x64, 0x65, 0x6e, 0x73, 0x65, 0x5f, 0x35, 0x32, 0x5f, 0x31, 0x2f, 0x4d,
  0x61, 0x74, 0x4d, 0x75, 0x6c, 0x3b, 0x73, 0x65, 0x71, 0x75, 0x65, 0x6e,
  0x74, 0x69, 0x61, 0x6c, 0x5f, 0x31, 0x39, 0x5f, 0x31, 0x2f, 0x64, 0x65,
  0x6e, 0x73, 0x65, 0x5f, 0x35, 0x32, 0x5f, 0x31, 0x2f, 0x52, 0x65, 0x6c,
  0x75, 0x3b, 0x73, 0x65, 0x71, 0x75, 0x65, 0x6e, 0x74, 0x69, 0x61, 0x6c,
  0x5f, 0x31, 0x39, 0x5f, 0x31, 0x2f, 0x64, 0x65, 0x6e, 0x73, 0x65, 0x5f,
  0x35, 0x32, 0x5f, 0x31, 0x2f, 0x42, 0x69, 0x61, 0x73, 0x41, 0x64, 0x64,
  0x00, 0x00, 0x00, 0x00, 0x02, 0x00, 0x00, 0x00, 0x01, 0x00, 0x00, 0x00,
  0x10, 0x00, 0x00, 0x00, 0x00, 0x00, 0x16, 0x00, 0x20, 0x00, 0x1c, 0x00,
  0x1b, 0x00, 0x14, 0x00, 0x10, 0x00, 0x0c, 0x00, 0x00, 0x00, 0x00, 0x00,
  0x08, 0x00, 0x07, 0x00, 0x16, 0x00, 0x00, 0x00, 0x00, 0x00, 0x00, 0x01,
  0x18, 0x00, 0x00, 0x00, 0x20, 0x00, 0x00, 0x00, 0x40, 0x00, 0x00, 0x00,
  0x14, 0x00, 0x00, 0x00, 0x00, 0x00, 0x00, 0x09, 0x48, 0x00, 0x00, 0x00,
  0x02, 0x00, 0x00, 0x00, 0xff, 0xff, 0xff, 0xff, 0x01, 0x00, 0x00, 0x00,
  0xe4, 0xe4, 0xff, 0xff, 0x08, 0x00, 0x00, 0x00, 0x14, 0x00, 0x00, 0x00,
  0x01, 0x00, 0x00, 0x00, 0x80, 0xff, 0xff, 0xff, 0xff, 0xff, 0xff, 0xff,
  0x00, 0x00, 0x00, 0x00, 0x01, 0x00, 0x00, 0x00, 0xa5, 0x7e, 0x80, 0x3b,
  0x0c, 0x00, 0x00, 0x00, 0x74, 0x66, 0x6c, 0x2e, 0x71, 0x75, 0x61, 0x6e,
  0x74, 0x69, 0x7a, 0x65, 0x00, 0x00, 0x00, 0x00, 0x02, 0x00, 0x00, 0x00,
  0x01, 0x00, 0x00, 0x00, 0x01, 0x00, 0x00, 0x00, 0x5a, 0xe5, 0xff, 0xff,
  0x00, 0x00, 0x00, 0x01, 0x14, 0x00, 0x00, 0x00, 0xe8, 0x00, 0x00, 0x00,
  0x13, 0x00, 0x00, 0x00, 0x00, 0x00, 0x00, 0x09, 0xf4, 0x00, 0x00, 0x00,
  0x44, 0xe5, 0xff, 0xff, 0x08, 0x00, 0x00, 0x00, 0x8c, 0x00, 0x00, 0x00,
  0x10, 0x00, 0x00, 0x00, 0x00, 0x00, 0x00, 0x00, 0x00, 0x00, 0x00, 0x00,
  0x00, 0x00, 0x00, 0x00, 0x00, 0x00, 0x00, 0x00, 0x00, 0x00, 0x00, 0x00,
  0x00, 0x00, 0x00, 0x00, 0x00, 0x00, 0x00, 0x00, 0x00, 0x00, 0x00, 0x00,
  0x00, 0x00, 0x00, 0x00, 0x00, 0x00, 0x00, 0x00, 0x00, 0x00, 0x00, 0x00,
  0x00, 0x00, 0x00, 0x00, 0x00, 0x00, 0x00, 0x00, 0x00, 0x00, 0x00, 0x00,
  0x00, 0x00, 0x00, 0x00, 0x00, 0x00, 0x00, 0x00, 0x00, 0x00, 0x00, 0x00,
  0x00, 0x00, 0x00, 0x00, 0x00, 0x00, 0x00, 0x00, 0x00, 0x00, 0x00, 0x00,
  0x00, 0x00, 0x00, 0x00, 0x00, 0x00, 0x00, 0x00, 0x00, 0x00, 0x00, 0x00,
  0x00, 0x00, 0x00, 0x00, 0x00, 0x00, 0x00, 0x00, 0x00, 0x00, 0x00, 0x00,
  0x00, 0x00, 0x00, 0x00, 0x00, 0x00, 0x00, 0x00, 0x00, 0x00, 0x00, 0x00,
  0x00, 0x00, 0x00, 0x00, 0x00, 0x00, 0x00, 0x00, 0x00, 0x00, 0x00, 0x00,
  0x00, 0x00, 0x00, 0x00, 0x10, 0x00, 0x00, 0x00, 0x7a, 0xa2, 0xb7, 0x3a,
  0x13, 0x85, 0x8c, 0x3b, 0x4b, 0x75, 0xab, 0x3a, 0x79, 0xbf, 0x9a, 0x3a,
  0xa5, 0xc2, 0xd5, 0x3a, 0x72, 0xae, 0xdf, 0x39, 0xca, 0x62, 0x7c, 0x3a,
  0x3e, 0xae, 0xa4, 0x3a, 0x3d, 0x2e, 0x26, 0x3a, 0x5d, 0x98, 0x34, 0x3b,
  0x61, 0x4b, 0x99, 0x3a, 0xb4, 0xd3, 0x22, 0x3b, 0xf4, 0xa6, 0x7a, 0x3b,
  0x2c, 0x14, 0xbc, 0x39, 0x0a, 0x40, 0x1f, 0x3b, 0x0c, 0xe0, 0x9a, 0x3a,
  0x13, 0x00, 0x00, 0x00, 0x74, 0x66, 0x6c, 0x2e, 0x70, 0x73, 0x65, 0x75,
  0x64, 0x6f, 0x5f, 0x71, 0x63, 0x6f, 0x6e, 0x73, 0x74, 0x31, 0x37, 0x00,
  0x02, 0x00, 0x00, 0x00, 0x10, 0x00, 0x00, 0x00, 0x01, 0x00, 0x00, 0x00,
  0x72, 0xe6, 0xff, 0xff, 0x00, 0x00, 0x00, 0x01, 0x14, 0x00, 0x00, 0x00,
  0xe4, 0x00, 0x00, 0x00, 0x12, 0x00, 0x00, 0x00, 0x00, 0x00, 0x00, 0x02,
  0xf0, 0x00, 0x00, 0x00, 0x5c, 0xe6, 0xff, 0xff, 0x08, 0x00, 0x00, 0x00,
  0x88, 0x00, 0x00, 0x00, 0x10, 0x00, 0x00, 0x00, 0x00, 0x00, 0x00, 0x00,
  0x00, 0x00, 0x00, 0x00, 0x00, 0x00, 0x00, 0x00, 0x00, 0x00, 0x00, 0x00,
  0x00, 0x00, 0x00, 0x00, 0x00, 0x00, 0x00, 0x00, 0x00, 0x00, 0x00, 0x00,
  0x00, 0x00, 0x00, 0x00, 0x00, 0x00, 0x00, 0x00, 0x00, 0x00, 0x00, 0x00,
  0x00, 0x00, 0x00, 0x00, 0x00, 0x00, 0x00, 0x00, 0x00, 0x00, 0x00, 0x00,
  0x00, 0x00, 0x00, 0x00, 0x00, 0x00, 0x00, 0x00, 0x00, 0x00, 0x00, 0x00,
  0x00, 0x00, 0x00, 0x00, 0x00, 0x00, 0x00, 0x00, 0x00, 0x00, 0x00, 0x00,
  0x00, 0x00, 0x00, 0x00, 0x00, 0x00, 0x00, 0x00, 0x00, 0x00, 0x00, 0x00,
  0x00, 0x00, 0x00, 0x00, 0x00, 0x00, 0x00, 0x00, 0x00, 0x00, 0x00, 0x00,
  0x00, 0x00, 0x00, 0x00, 0x00, 0x00, 0x00, 0x00, 0x00, 0x00, 0x00, 0x00,
  0x00, 0x00, 0x00, 0x00, 0x00, 0x00, 0x00, 0x00, 0x00, 0x00, 0x00, 0x00,
  0x00, 0x00, 0x00, 0x00, 0x10, 0x00, 0x00, 0x00, 0x2b, 0x58, 0xb8, 0x36,
  0x1b, 0x10, 0x8d, 0x37, 0xef, 0x1e, 0xac, 0x36, 0x95, 0x58, 0x9b, 0x36,
  0x24, 0x96, 0xd6, 0x36, 0xc2, 0x8b, 0xe0, 0x35, 0x81, 0x5c, 0x7d, 0x36,
  0x2e, 0x51, 0xa5, 0x36, 0xa9, 0xd2, 0x26, 0x36, 0x0c, 0x4b, 0x35, 0x37,
  0x0d, 0xe3, 0x99, 0x36, 0xce, 0x74, 0x23, 0x37, 0xf3, 0x9e, 0x7b, 0x37,
  0x42, 0xce, 0xbc, 0x35, 0x9a, 0xdd, 0x1f, 0x37, 0x48, 0x79, 0x9b, 0x36,
  0x13, 0x00, 0x00, 0x00, 0x74, 0x66, 0x6c, 0x2e, 0x70, 0x73, 0x65, 0x75,
  0x64, 0x6f, 0x5f, 0x71, 0x63, 0x6f, 0x6e, 0x73, 0x74, 0x31, 0x36, 0x00,
  0x01, 0x00, 0x00, 0x00, 0x10, 0x00, 0x00, 0x00, 0x82, 0xe7, 0xff, 0xff,
  0x00, 0x00, 0x00, 0x01, 0x14, 0x00, 0x00, 0x00, 0xa8, 0x01, 0x00, 0x00,
  0x11, 0x00, 0x00, 0x00, 0x00, 0x00, 0x00, 0x09, 0xb4, 0x01, 0x00, 0x00,
  0x6c, 0xe7, 0xff, 0xff, 0x08, 0x00, 0x00, 0x00, 0x0c, 0x01, 0x00, 0x00,
  0x20, 0x00, 0x00, 0x00, 0x00, 0x00, 0x00, 0x00, 0x00, 0x00, 0x00, 0x00,
  0x00, 0x00, 0x00, 0x00, 0x00, 0x00, 0x00, 0x00, 0x00, 0x00, 0x00, 0x00,
  0x00, 0x00, 0x00, 0x00, 0x00, 0x00, 0x00, 0x00, 0x00, 0x00, 0x00, 0x00,
  0x00, 0x00, 0x00, 0x00, 0x00, 0x00, 0x00, 0x00, 0x00, 0x00, 0x00, 0x00,
  0x00, 0x00, 0x00, 0x00, 0x00, 0x00, 0x00, 0x00, 0x00, 0x00, 0x00, 0x00,
  0x00, 0x00, 0x00, 0x00, 0x00, 0x00, 0x00, 0x00, 0x00, 0x00, 0x00, 0x00,
  0x00, 0x00, 0x00, 0x00, 0x00, 0x00, 0x00, 0x00, 0x00, 0x00, 0x00, 0x00,
  0x00, 0x00, 0x00, 0x00, 0x00, 0x00, 0x00, 0x00, 0x00, 0x00, 0x00, 0x00,
  0x00, 0x00, 0x00, 0x00, 0x00, 0x00, 0x00, 0x00, 0x00, 0x00, 0x00, 0x00,
  0x00, 0x00, 0x00, 0x00, 0x00, 0x00, 0x00, 0x00, 0x00, 0x00, 0x00, 0x00,
  0x00, 0x00, 0x00, 0x00, 0x00, 0x00, 0x00, 0x00, 0x00, 0x00, 0x00, 0x00,
  0x00, 0x00, 0x00, 0x00, 0x00, 0x00, 0x00, 0x00, 0x00, 0x00, 0x00, 0x00,
  0x00, 0x00, 0x00, 0x00, 0x00, 0x00, 0x00, 0x00, 0x00, 0x00, 0x00, 0x00,
  0x00, 0x00, 0x00, 0x00, 0x00, 0x00, 0x00, 0x00, 0x00, 0x00, 0x00, 0x00,
  0x00, 0x00, 0x00, 0x00, 0x00, 0x00, 0x00, 0x00, 0x00, 0x00, 0x00, 0x00,
  0x00, 0x00, 0x00, 0x00, 0x00, 0x00, 0x00, 0x00, 0x00, 0x00, 0x00, 0x00,
  0x00, 0x00, 0x00, 0x00, 0x00, 0x00, 0x00, 0x00, 0x00, 0x00, 0x00, 0x00,
  0x00, 0x00, 0x00, 0x00, 0x00, 0x00, 0x00, 0x00, 0x00, 0x00, 0x00, 0x00,
  0x00, 0x00, 0x00, 0x00, 0x00, 0x00, 0x00, 0x00, 0x00, 0x00, 0x00, 0x00,
  0x00, 0x00, 0x00, 0x00, 0x00, 0x00, 0x00, 0x00, 0x00, 0x00, 0x00, 0x00,
  0x00, 0x00, 0x00, 0x00, 0x00, 0x00, 0x00, 0x00, 0x00, 0x00, 0x00, 0x00,
  0x00, 0x00, 0x00, 0x00, 0x00, 0x00, 0x00, 0x00, 0x00, 0x00, 0x00, 0x00,
  0x20, 0x00, 0x00, 0x00, 0xd1, 0xa9, 0x32, 0x3b, 0xc1, 0xe1, 0x3b, 0x3b,
  0xad, 0x2d, 0x49, 0x3b, 0xb3, 0x1b, 0x4c, 0x3b, 0x17, 0xad, 0x30, 0x3b,
  0x78, 0x75, 0x32, 0x3b, 0xea, 0xd1, 0x21, 0x3b, 0x51, 0xef, 0x3e, 0x3b,
  0x35, 0xf5, 0x26, 0x3b, 0xdd, 0x99, 0x49, 0x3b, 0x53, 0x52, 0x25, 0x3b,
  0xe2, 0x92, 0x2e, 0x3b, 0x1a, 0xed, 0x2e, 0x3b, 0xcd, 0xa1, 0x29, 0x3b,
  0x2f, 0x98, 0x30, 0x3b, 0x4c, 0x34, 0x27, 0x3b, 0xd7, 0x8f, 0x54, 0x3b,
  0x30, 0xd6, 0x53, 0x3b, 0x27, 0x47, 0x32, 0x3b, 0xf9, 0x85, 0x2f, 0x3b,
  0x03, 0xb0, 0x30, 0x3b, 0x46, 0xde, 0x39, 0x3b, 0x0f, 0xe7, 0x29, 0x3b,
  0xb7, 0xf5, 0x3e, 0x3b, 0x02, 0xa9, 0x27, 0x3b, 0x2c, 0xb2, 0x2c, 0x3b,
  0xc1, 0x35, 0x36, 0x3b, 0xac, 0xb6, 0x23, 0x3b, 0x83, 0x6d, 0x32, 0x3b,
  0xe9, 0xff, 0x2a, 0x3b, 0x5c, 0x29, 0x36, 0x3b, 0x82, 0xdc, 0x2d, 0x3b,
  0x13, 0x00, 0x00, 0x00, 0x74, 0x66, 0x6c, 0x2e, 0x70, 0x73, 0x65, 0x75,
  0x64, 0x6f, 0x5f, 0x71, 0x63, 0x6f, 0x6e, 0x73, 0x74, 0x31, 0x35, 0x00,
  0x02, 0x00, 0x00, 0x00, 0x20, 0x00, 0x00, 0x00, 0x10, 0x00, 0x00, 0x00,
  0x5a, 0xe9, 0xff, 0xff, 0x00, 0x00, 0x00, 0x01, 0x14, 0x00, 0x00, 0x00,
  0xa4, 0x01, 0x00, 0x00, 0x10, 0x00, 0x00, 0x00, 0x00, 0x00, 0x00, 0x02,
  0xb0, 0x01, 0x00, 0x00, 0x44, 0xe9, 0xff, 0xff, 0x08, 0x00, 0x00, 0x00,
  0x08, 0x01, 0x00, 0x00, 0x20, 0x00, 0x00, 0x00, 0x00, 0x00, 0x00, 0x00,
  0x00, 0x00, 0x00, 0x00, 0x00, 0x00, 0x00, 0x00, 0x00, 0x00, 0x00, 0x00,
  0x00, 0x00, 0x00, 0x00, 0x00, 0x00, 0x00, 0x00, 0x00, 0x00, 0x00, 0x00,
  0x00, 0x00, 0x00, 0x00, 0x00, 0x00, 0x00, 0x00, 0x00, 0x00, 0x00, 0x00,
  0x00, 0x00, 0x00, 0x00, 0x00, 0x00, 0x00, 0x00, 0x00, 0x00, 0x00, 0x00,
  0x00, 0x00, 0x00, 0x00, 0x00, 0x00, 0x00, 0x00, 0x00, 0x00, 0x00, 0x00,
  0x00, 0x00, 0x00, 0x00, 0x00, 0x00, 0x00, 0x00, 0x00, 0x00, 0x00, 0x00,
  0x00, 0x00, 0x00, 0x00, 0x00, 0x00, 0x00, 0x00, 0x00, 0x00, 0x00, 0x00,
  0x00, 0x00, 0x00, 0x00, 0x00, 0x00, 0x00, 0x00, 0x00, 0x00, 0x00, 0x00,
  0x00, 0x00, 0x00, 0x00, 0x00, 0x00, 0x00, 0x00, 0x00, 0x00, 0x00, 0x00,
  0x00, 0x00, 0x00, 0x00, 0x00, 0x00, 0x00, 0x00, 0x00, 0x00, 0x00, 0x00,
  0x00, 0x00, 0x00, 0x00, 0x00, 0x00, 0x00, 0x00, 0x00, 0x00, 0x00, 0x00,
  0x00, 0x00, 0x00, 0x00, 0x00, 0x00, 0x00, 0x00, 0x00, 0x00, 0x00, 0x00,
  0x00, 0x00, 0x00, 0x00, 0x00, 0x00, 0x00, 0x00, 0x00, 0x00, 0x00, 0x00,
  0x00, 0x00, 0x00, 0x00, 0x00, 0x00, 0x00, 0x00, 0x00, 0x00, 0x00, 0x00,
  0x00, 0x00, 0x00, 0x00, 0x00, 0x00, 0x00, 0x00, 0x00, 0x00, 0x00, 0x00,
  0x00, 0x00, 0x00, 0x00, 0x00, 0x00, 0x00, 0x00, 0x00, 0x00, 0x00, 0x00,
  0x00, 0x00, 0x00, 0x00, 0x00, 0x00, 0x00, 0x00, 0x00, 0x00, 0x00, 0x00,
  0x00, 0x00, 0x00, 0x00, 0x00, 0x00, 0x00, 0x00, 0x00, 0x00, 0x00, 0x00,
  0x00, 0x00, 0x00, 0x00, 0x00, 0x00, 0x00, 0x00, 0x00, 0x00, 0x00, 0x00,
  0x00, 0x00, 0x00, 0x00, 0x00, 0x00, 0x00, 0x00, 0x00, 0x00, 0x00, 0x00,
  0x00, 0x00, 0x00, 0x00, 0x00, 0x00, 0x00, 0x00, 0x00, 0x00, 0x00, 0x00,
  0x20, 0x00, 0x00, 0x00, 0x18, 0xb7, 0xa7, 0x36, 0x6c, 0x5e, 0xb0, 0x36,
  0xc2, 0xd9, 0xbc, 0x36, 0xd2, 0x99, 0xbf, 0x36, 0x8b, 0xd9, 0xa5, 0x36,
  0xf5, 0x85, 0xa7, 0x36, 0x6b, 0xe7, 0x97, 0x36, 0x17, 0x3c, 0xb3, 0x36,
  0x1d, 0xba, 0x9c, 0x36, 0x51, 0x3f, 0xbd, 0x36, 0xe6, 0x30, 0x9b, 0x36,
  0x51, 0xe0, 0xa3, 0x36, 0x02, 0x35, 0xa4, 0x36, 0xc1, 0x3c, 0x9f, 0x36,
  0xeb, 0xc5, 0xa5, 0x36, 0x56, 0xf5, 0x9c, 0x36, 0x59, 0x89, 0xc7, 0x36,
  0x12, 0xdb, 0xc6, 0x36, 0x7a, 0x5a, 0xa7, 0x36, 0x82, 0xc4, 0xa4, 0x36,
  0x49, 0xdc, 0xa5, 0x36, 0x87, 0x7a, 0xae, 0x36, 0xc5, 0x7d, 0x9f, 0x36,
  0x19, 0x42, 0xb3, 0x36, 0xe5, 0x62, 0x9d, 0x36, 0x10, 0x1d, 0xa2, 0x36,
  0x65, 0x0b, 0xab, 0x36, 0x78, 0xae, 0x99, 0x36, 0x7c, 0x7e, 0xa7, 0x36,
  0x69, 0x85, 0xa0, 0x36, 0xc3, 0xff, 0xaa, 0x36, 0x1e, 0x35, 0xa3, 0x36,
  0x13, 0x00, 0x00, 0x00, 0x74, 0x66, 0x6c, 0x2e, 0x70, 0x73, 0x65, 0x75,
  0x64, 0x6f, 0x5f, 0x71, 0x63, 0x6f, 0x6e, 0x73, 0x74, 0x31, 0x34, 0x00,
  0x01, 0x00, 0x00, 0x00, 0x20, 0x00, 0x00, 0x00, 0x2a, 0xeb, 0xff, 0xff,
  0x00, 0x00, 0x00, 0x01, 0x14, 0x00, 0x00, 0x00, 0xa8, 0x01, 0x00, 0x00,
  0x0f, 0x00, 0x00, 0x00, 0x00, 0x00, 0x00, 0x09, 0xb4, 0x01, 0x00, 0x00,
  0x14, 0xeb, 0xff, 0xff, 0x08, 0x00, 0x00, 0x00, 0x0c, 0x01, 0x00, 0x00,
  0x20, 0x00, 0x00, 0x00, 0x00, 0x00, 0x00, 0x00, 0x00, 0x00, 0x00, 0x00,
  0x00, 0x00, 0x00, 0x00, 0x00, 0x00, 0x00, 0x00, 0x00, 0x00, 0x00, 0x00,
  0x00, 0x00, 0x00, 0x00, 0x00, 0x00, 0x00, 0x00, 0x00, 0x00, 0x00, 0x00,
  0x00, 0x00, 0x00, 0x00, 0x00, 0x00, 0x00, 0x00, 0x00, 0x00, 0x00, 0x00,
  0x00, 0x00, 0x00, 0x00, 0x00, 0x00, 0x00, 0x00, 0x00, 0x00, 0x00, 0x00,
  0x00, 0x00, 0x00, 0x00, 0x00, 0x00, 0x00, 0x00, 0x00, 0x00, 0x00, 0x00,
  0x00, 0x00, 0x00, 0x00, 0x00, 0x00, 0x00, 0x00, 0x00, 0x00, 0x00, 0x00,
  0x00, 0x00, 0x00, 0x00, 0x00, 0x00, 0x00, 0x00, 0x00, 0x00, 0x00, 0x00,
  0x00, 0x00, 0x00, 0x00, 0x00, 0x00, 0x00, 0x00, 0x00, 0x00, 0x00, 0x00,
  0x00, 0x00, 0x00, 0x00, 0x00, 0x00, 0x00, 0x00, 0x00, 0x00, 0x00, 0x00,
  0x00, 0x00, 0x00, 0x00, 0x00, 0x00, 0x00, 0x00, 0x00, 0x00, 0x00, 0x00,
  0x00, 0x00, 0x00, 0x00, 0x00, 0x00, 0x00, 0x00, 0x00, 0x00, 0x00, 0x00,
  0x00, 0x00, 0x00, 0x00, 0x00, 0x00, 0x00, 0x00, 0x00, 0x00, 0x00, 0x00,
  0x00, 0x00, 0x00, 0x00, 0x00, 0x00, 0x00, 0x00, 0x00, 0x00, 0x00, 0x00,
  0x00, 0x00, 0x00, 0x00, 0x00, 0x00, 0x00, 0x00, 0x00, 0x00, 0x00, 0x00,
  0x00, 0x00, 0x00, 0x00, 0x00, 0x00, 0x00, 0x00, 0x00, 0x00, 0x00, 0x00,
  0x00, 0x00, 0x00, 0x00, 0x00, 0x00, 0x00, 0x00, 0x00, 0x00, 0x00, 0x00,
  0x00, 0x00, 0x00, 0x00, 0x00, 0x00, 0x00, 0x00, 0x00, 0x00, 0x00, 0x00,
  0x00, 0x00, 0x00, 0x00, 0x00, 0x00, 0x00, 0x00, 0x00, 0x00, 0x00, 0x00,
  0x00, 0x00, 0x00, 0x00, 0x00, 0x00, 0x00, 0x00, 0x00, 0x00, 0x00, 0x00,
  0x00, 0x00, 0x00, 0x00, 0x00, 0x00, 0x00, 0x00, 0x00, 0x00, 0x00, 0x00,
  0x00, 0x00, 0x00, 0x00, 0x00, 0x00, 0x00, 0x00, 0x00, 0x00, 0x00, 0x00,
  0x20, 0x00, 0x00, 0x00, 0x90, 0x0d, 0x82, 0x3b, 0xae, 0x0f, 0x06, 0x3b,
  0xec, 0x08, 0x85, 0x3b, 0x80, 0x7a, 0x6c, 0x3b, 0x4c, 0x9d, 0x8d, 0x3b,
  0x1b, 0x64, 0x85, 0x3b, 0xde, 0xe5, 0x47, 0x3b, 0x92, 0xa8, 0x1b, 0x3b,
  0x56, 0xf1, 0x52, 0x3b, 0xf6, 0xb3, 0x2b, 0x3b, 0x15, 0x2a, 0x30, 0x3b,
  0x2c, 0x6a, 0x7a, 0x3b, 0x52, 0x59, 0x18, 0x3b, 0xc9, 0x0b, 0x35, 0x3b,
  0x3b, 0x28, 0x1b, 0x3b, 0x54, 0x0b, 0x23, 0x3b, 0x50, 0xc2, 0x1d, 0x3b,
  0x1c, 0x61, 0x1a, 0x3b, 0xe5, 0xdc, 0x49, 0x3b, 0xae, 0x24, 0x1a, 0x3b,
  0x7e, 0x8d, 0x1d, 0x3b, 0x50, 0x99, 0x55, 0x3b, 0x1e, 0x91, 0x14, 0x3b,
  0x93, 0xe8, 0x50, 0x3b, 0x24, 0x8f, 0x1c, 0x3b, 0x56, 0xe5, 0x4a, 0x3b,
  0x33, 0xd6, 0x18, 0x3b, 0xa9, 0xd0, 0x41, 0x3b, 0x69, 0xce, 0x6a, 0x3b,
  0x42, 0xa9, 0x47, 0x3b, 0x25, 0xaf, 0x19, 0x3b, 0x68, 0xde, 0x17, 0x3b,
  0x13, 0x00, 0x00, 0x00, 0x74, 0x66, 0x6c, 0x2e, 0x70, 0x73, 0x65, 0x75,
  0x64, 0x6f, 0x5f, 0x71, 0x63, 0x6f, 0x6e, 0x73, 0x74, 0x31, 0x33, 0x00,
  0x02, 0x00, 0x00, 0x00, 0x20, 0x00, 0x00, 0x00, 0x20, 0x00, 0x00, 0x00,
  0x02, 0xed, 0xff, 0xff, 0x00, 0x00, 0x00, 0x01, 0x14, 0x00, 0x00, 0x00,
  0xa4, 0x01, 0x00, 0x00, 0x0e, 0x00, 0x00, 0x00, 0x00, 0x00, 0x00, 0x02,
  0xb0, 0x01, 0x00, 0x00, 0xec, 0xec, 0xff, 0xff, 0x08, 0x00, 0x00, 0x00,
  0x08, 0x01, 0x00, 0x00, 0x20, 0x00, 0x00, 0x00, 0x00, 0x00, 0x00, 0x00,
  0x00, 0x00, 0x00, 0x00, 0x00, 0x00, 0x00, 0x00, 0x00, 0x00, 0x00, 0x00,
  0x00, 0x00, 0x00, 0x00, 0x00, 0x00, 0x00, 0x00, 0x00, 0x00, 0x00, 0x00,
  0x00, 0x00, 0x00, 0x00, 0x00, 0x00, 0x00, 0x00, 0x00, 0x00, 0x00, 0x00,
  0x00, 0x00, 0x00, 0x00, 0x00, 0x00, 0x00, 0x00, 0x00, 0x00, 0x00, 0x00,
  0x00, 0x00, 0x00, 0x00, 0x00, 0x00, 0x00, 0x00, 0x00, 0x00, 0x00, 0x00,
  0x00, 0x00, 0x00, 0x00, 0x00, 0x00, 0x00, 0x00, 0x00, 0x00, 0x00, 0x00,
  0x00, 0x00, 0x00, 0x00, 0x00, 0x00, 0x00, 0x00, 0x00, 0x00, 0x00, 0x00,
  0x00, 0x00, 0x00, 0x00, 0x00, 0x00, 0x00, 0x00, 0x00, 0x00, 0x00, 0x00,
  0x00, 0x00, 0x00, 0x00, 0x00, 0x00, 0x00, 0x00, 0x00, 0x00, 0x00, 0x00,
  0x00, 0x00, 0x00, 0x00, 0x00, 0x00, 0x00, 0x00, 0x00, 0x00, 0x00, 0x00,
  0x00, 0x00, 0x00, 0x00, 0x00, 0x00, 0x00, 0x00, 0x00, 0x00, 0x00, 0x00,
  0x00, 0x00, 0x00, 0x00, 0x00, 0x00, 0x00, 0x00, 0x00, 0x00, 0x00, 0x00,
  0x00, 0x00, 0x00, 0x00, 0x00, 0x00, 0x00, 0x00, 0x00, 0x00, 0x00, 0x00,
  0x00, 0x00, 0x00, 0x00, 0x00, 0x00, 0x00, 0x00, 0x00, 0x00, 0x00, 0x00,
  0x00, 0x00, 0x00, 0x00, 0x00, 0x00, 0x00, 0x00, 0x00, 0x00, 0x00, 0x00,
  0x00, 0x00, 0x00, 0x00, 0x00, 0x00, 0x00, 0x00, 0x00, 0x00, 0x00, 0x00,
  0x00, 0x00, 0x00, 0x00, 0x00, 0x00, 0x00, 0x00, 0x00, 0x00, 0x00, 0x00,
  0x00, 0x00, 0x00, 0x00, 0x00, 0x00, 0x00, 0x00, 0x00, 0x00, 0x00, 0x00,
  0x00, 0x00, 0x00, 0x00, 0x00, 0x00, 0x00, 0x00, 0x00, 0x00, 0x00, 0x00,
  0x00, 0x00, 0x00, 0x00, 0x00, 0x00, 0x00, 0x00, 0x00, 0x00, 0x00, 0x00,
  0x00, 0x00, 0x00, 0x00, 0x00, 0x00, 0x00, 0x00, 0x00, 0x00, 0x00, 0x00,
  0x20, 0x00, 0x00, 0x00, 0x86, 0x1d, 0x03, 0x37, 0x06, 0x28, 0x87, 0x36,
  0x1e, 0x1f, 0x06, 0x37, 0x03, 0x69, 0xee, 0x36, 0x6f, 0xc5, 0x0e, 0x37,
  0x0c, 0x7b, 0x06, 0x37, 0xe3, 0x87, 0xc9, 0x36, 0x14, 0xee, 0x9c, 0x36,
  0x73, 0xaa, 0xd4, 0x36, 0x05, 0x1b, 0xad, 0x36, 0x78, 0x9a, 0xb1, 0x36,
  0xd4, 0x75, 0xfc, 0x36, 0xe8, 0x97, 0x99, 0x36, 0x61, 0x86, 0xb6, 0x36,
  0xb0, 0x6c, 0x9c, 0x36, 0x47, 0x60, 0xa4, 0x36, 0x36, 0x0c, 0x9f, 0x36,
  0xf1, 0xa3, 0x9b, 0x36, 0x05, 0x83, 0xcb, 0x36, 0x04, 0x67, 0x9b, 0x36,
  0xf6, 0xd6, 0x9e, 0x36, 0xfb, 0x57, 0xd7, 0x36, 0xcb, 0xc7, 0x95, 0x36,
  0x6f, 0x9d, 0xd2, 0x36, 0x88, 0xd6, 0x9d, 0x36, 0x9f, 0x8d, 0xcc, 0x36,
  0xce, 0x15, 0x9a, 0x36, 0xf5, 0x65, 0xc3, 0x36, 0x6d, 0xb9, 0xec, 0x36,
  0xc8, 0x4a, 0xc9, 0x36, 0x86, 0xf0, 0x9a, 0x36, 0xfd, 0x1b, 0x99, 0x36,
  0x13, 0x00, 0x00, 0x00, 0x74, 0x66, 0x6c, 0x2e, 0x70, 0x73, 0x65, 0x75,
  0x64, 0x6f, 0x5f, 0x71, 0x63, 0x6f, 0x6e, 0x73, 0x74, 0x31, 0x32, 0x00,
  0x01, 0x00, 0x00, 0x00, 0x20, 0x00, 0x00, 0x00, 0xd2, 0xee, 0xff, 0xff,
  0x00, 0x00, 0x00, 0x01, 0x14, 0x00, 0x00, 0x00, 0xa8, 0x01, 0x00, 0x00,
  0x0d, 0x00, 0x00, 0x00, 0x00, 0x00, 0x00, 0x09, 0xb4, 0x01, 0x00, 0x00,
  0xbc, 0xee, 0xff, 0xff, 0x08, 0x00, 0x00, 0x00, 0x0c, 0x01, 0x00, 0x00,
  0x20, 0x00, 0x00, 0x00, 0x00, 0x00, 0x00, 0x00, 0x00, 0x00, 0x00, 0x00,
  0x00, 0x00, 0x00, 0x00, 0x00, 0x00, 0x00, 0x00, 0x00, 0x00, 0x00, 0x00,
  0x00, 0x00, 0x00, 0x00, 0x00, 0x00, 0x00, 0x00, 0x00, 0x00, 0x00, 0x00,
  0x00, 0x00, 0x00, 0x00, 0x00, 0x00, 0x00, 0x00, 0x00, 0x00, 0x00, 0x00,
  0x00, 0x00, 0x00, 0x00, 0x00, 0x00, 0x00, 0x00, 0x00, 0x00, 0x00, 0x00,
  0x00, 0x00, 0x00, 0x00, 0x00, 0x00, 0x00, 0x00, 0x00, 0x00, 0x00, 0x00,
  0x00, 0x00, 0x00, 0x00, 0x00, 0x00, 0x00, 0x00, 0x00, 0x00, 0x00, 0x00,
  0x00, 0x00, 0x00, 0x00, 0x00, 0x00, 0x00, 0x00, 0x00, 0x00, 0x00, 0x00,
  0x00, 0x00, 0x00, 0x00, 0x00, 0x00, 0x00, 0x00, 0x00, 0x00, 0x00, 0x00,
  0x00, 0x00, 0x00, 0x00, 0x00, 0x00, 0x00, 0x00, 0x00, 0x00, 0x00, 0x00,
  0x00, 0x00, 0x00, 0x00, 0x00, 0x00, 0x00, 0x00, 0x00, 0x00, 0x00, 0x00,
  0x00, 0x00, 0x00, 0x00, 0x00, 0x00, 0x00, 0x00, 0x00, 0x00, 0x00, 0x00,
  0x00, 0x00, 0x00, 0x00, 0x00, 0x00, 0x00, 0x00, 0x00, 0x00, 0x00, 0x00,
  0x00, 0x00, 0x00, 0x00, 0x00, 0x00, 0x00, 0x00, 0x00, 0x00, 0x00, 0x00,
  0x00, 0x00, 0x00, 0x00, 0x00, 0x00, 0x00, 0x00, 0x00, 0x00, 0x00, 0x00,
  0x00, 0x00, 0x00, 0x00, 0x00, 0x00, 0x00, 0x00, 0x00, 0x00, 0x00, 0x00,
  0x00, 0x00, 0x00, 0x00, 0x00, 0x00, 0x00, 0x00, 0x00, 0x00, 0x00, 0x00,
  0x00, 0x00, 0x00, 0x00, 0x00, 0x00, 0x00, 0x00, 0x00, 0x00, 0x00, 0x00,
  0x00, 0x00, 0x00, 0x00, 0x00, 0x00, 0x00, 0x00, 0x00, 0x00, 0x00, 0x00,
  0x00, 0x00, 0x00, 0x00, 0x00, 0x00, 0x00, 0x00, 0x00, 0x00, 0x00, 0x00,
  0x00, 0x00, 0x00, 0x00, 0x00, 0x00, 0x00, 0x00, 0x00, 0x00, 0x00, 0x00,
  0x00, 0x00, 0x00, 0x00, 0x00, 0x00, 0x00, 0x00, 0x00, 0x00, 0x00, 0x00,
  0x20, 0x00, 0x00, 0x00, 0x2a, 0x99, 0x09, 0x3b, 0x64, 0xfa, 0x1d, 0x3b,
  0x64, 0x5f, 0x1d, 0x3b, 0x36, 0x40, 0x82, 0x3b, 0xdc, 0x66, 0x1d, 0x3b,
  0x51, 0x15, 0x2b, 0x3b, 0xee, 0x20, 0x5f, 0x3b, 0xc3, 0xf0, 0x37, 0x3b,
  0x61, 0xed, 0x1c, 0x3b, 0xbf, 0xe9, 0x50, 0x3b, 0x3e, 0x83, 0x6f, 0x3b,
  0x3d, 0x44, 0x3f, 0x3b, 0x74, 0x60, 0x72, 0x3b, 0x4e, 0xa4, 0xa2, 0x3b,
  0xb7, 0xca, 0x18, 0x3b, 0x2f, 0x35, 0x70, 0x3b, 0x7b, 0x69, 0x67, 0x3b,
  0x02, 0x24, 0x5c, 0x3b, 0x60, 0x38, 0x29, 0x3b, 0xc6, 0x94, 0x50, 0x3b,
  0x30, 0xa6, 0x19, 0x3b, 0x9a, 0x51, 0x17, 0x3b, 0x20, 0xc8, 0x33, 0x3b,
  0x19, 0x5d, 0x18, 0x3b, 0xee, 0x8b, 0x1c, 0x3b, 0x3e, 0xbf, 0x41, 0x3b,
  0x7a, 0x4d, 0x6c, 0x3b, 0x9a, 0xe6, 0x60, 0x3b, 0x24, 0xf6, 0x44, 0x3b,
  0xf2, 0xba, 0x34, 0x3b, 0xf2, 0xb1, 0x1b, 0x3b, 0xa3, 0x5c, 0x39, 0x3b,
  0x13, 0x00, 0x00, 0x00, 0x74, 0x66, 0x6c, 0x2e, 0x70, 0x73, 0x65, 0x75,
  0x64, 0x6f, 0x5f, 0x71, 0x63, 0x6f, 0x6e, 0x73, 0x74, 0x31, 0x31, 0x00,
  0x02, 0x00, 0x00, 0x00, 0x20, 0x00, 0x00, 0x00, 0x20, 0x00, 0x00, 0x00,
  0xaa, 0xf0, 0xff, 0xff, 0x00, 0x00, 0x00, 0x01, 0x14, 0x00, 0x00, 0x00,
  0xa4, 0x01, 0x00, 0x00, 0x0c, 0x00, 0x00, 0x00, 0x00, 0x00, 0x00, 0x02,
  0xb0, 0x01, 0x00, 0x00, 0x94, 0xf0, 0xff, 0xff, 0x08, 0x00, 0x00, 0x00,
  0x08, 0x01, 0x00, 0x00, 0x20, 0x00, 0x00, 0x00, 0x00, 0x00, 0x00, 0x00,
  0x00, 0x00, 0x00, 0x00, 0x00, 0x00, 0x00, 0x00, 0x00, 0x00, 0x00, 0x00,
  0x00, 0x00, 0x00, 0x00, 0x00, 0x00, 0x00, 0x00, 0x00, 0x00, 0x00, 0x00,
  0x00, 0x00, 0x00, 0x00, 0x00, 0x00, 0x00, 0x00, 0x00, 0x00, 0x00, 0x00,
  0x00, 0x00, 0x00, 0x00, 0x00, 0x00, 0x00, 0x00, 0x00, 0x00, 0x00, 0x00,
  0x00, 0x00, 0x00, 0x00, 0x00, 0x00, 0x00, 0x00, 0x00, 0x00, 0x00, 0x00,
  0x00, 0x00, 0x00, 0x00, 0x00, 0x00, 0x00, 0x00, 0x00, 0x00, 0x00, 0x00,
  0x00, 0x00, 0x00, 0x00, 0x00, 0x00, 0x00, 0x00, 0x00, 0x00, 0x00, 0x00,
  0x00, 0x00, 0x00, 0x00, 0x00, 0x00, 0x00, 0x00, 0x00, 0x00, 0x00, 0x00,
  0x00, 0x00, 0x00, 0x00, 0x00, 0x00, 0x00, 0x00, 0x00, 0x00, 0x00, 0x00,
  0x00, 0x00, 0x00, 0x00, 0x00, 0x00, 0x00, 0x00, 0x00, 0x00, 0x00, 0x00,
  0x00, 0x00, 0x00, 0x00, 0x00, 0x00, 0x00, 0x00, 0x00, 0x00, 0x00, 0x00,
  0x00, 0x00, 0x00, 0x00, 0x00, 0x00, 0x00, 0x00, 0x00, 0x00, 0x00, 0x00,
  0x00, 0x00, 0x00, 0x00, 0x00, 0x00, 0x00, 0x00, 0x00, 0x00, 0x00, 0x00,
  0x00, 0x00, 0x00, 0x00, 0x00, 0x00, 0x00, 0x00, 0x00, 0x00, 0x00, 0x00,
  0x00, 0x00, 0x00, 0x00, 0x00, 0x00, 0x00, 0x00, 0x00, 0x00, 0x00, 0x00,
  0x00, 0x00, 0x00, 0x00, 0x00, 0x00, 0x00, 0x00, 0x00, 0x00, 0x00, 0x00,
  0x00, 0x00, 0x00, 0x00, 0x00, 0x00, 0x00, 0x00, 0x00, 0x00, 0x00, 0x00,
  0x00, 0x00, 0x00, 0x00, 0x00, 0x00, 0x00, 0x00, 0x00, 0x00, 0x00, 0x00,
  0x00, 0x00, 0x00, 0x00, 0x00, 0x00, 0x00, 0x00, 0x00, 0x00, 0x00, 0x00,
  0x00, 0x00, 0x00, 0x00, 0x00, 0x00, 0x00, 0x00, 0x00, 0x00, 0x00, 0x00,
  0x00, 0x00, 0x00, 0x00, 0x00, 0x00, 0x00, 0x00, 0x00, 0x00, 0x00, 0x00,
  0x20, 0x00, 0x00, 0x00, 0x5f, 0x70, 0x9e, 0x36, 0xcc, 0xe7, 0xb5, 0x36,
  0x52, 0x35, 0xb5, 0x36, 0x87, 0xfa, 0x15, 0x37, 0xec, 0x3d, 0xb5, 0x36,
  0xdc, 0xfe, 0xc4, 0x36, 0x3c, 0x76, 0x00, 0x37, 0xd4, 0xcc, 0xd3, 0x36,
  0x0a, 0xb2, 0xb4, 0x36, 0x18, 0x8e, 0xf0, 0x36, 0x07, 0xe5, 0x09, 0x37,
  0x5d, 0x3c, 0xdc, 0x36, 0x28, 0x8b, 0x0b, 0x37, 0x8b, 0x46, 0x3b, 0x37,
  0x08, 0xef, 0xaf, 0x36, 0x79, 0x4b, 0x0a, 0x37, 0x19, 0x3b, 0x05, 0x37,
  0xb1, 0x7b, 0xfd, 0x36, 0xae, 0xd9, 0xc2, 0x36, 0x40, 0x2c, 0xf0, 0x36,
  0xbf, 0xeb, 0xb0, 0x36, 0xcd, 0x3c, 0xae, 0x36, 0xf1, 0x02, 0xcf, 0x36,
  0xd0, 0x70, 0xaf, 0x36, 0xd5, 0x41, 0xb4, 0x36, 0x8c, 0x17, 0xdf, 0x36,
  0xe9, 0x0b, 0x08, 0x37, 0x6d, 0x7b, 0x01, 0x37, 0x15, 0xcb, 0xe2, 0x36,
  0x8a, 0x1a, 0xd0, 0x36, 0xd5, 0x46, 0xb3, 0x36, 0xd1, 0x6f, 0xd5, 0x36,
  0x13, 0x00, 0x00, 0x00, 0x74, 0x66, 0x6c, 0x2e, 0x70, 0x73, 0x65, 0x75,
  0x64, 0x6f, 0x5f, 0x71, 0x63, 0x6f, 0x6e, 0x73, 0x74, 0x31, 0x30, 0x00,
  0x01, 0x00, 0x00, 0x00, 0x20, 0x00, 0x00, 0x00, 0x7a, 0xf2, 0xff, 0xff,
  0x00, 0x00, 0x00, 0x01, 0x14, 0x00, 0x00, 0x00, 0xa8, 0x01, 0x00, 0x00,
  0x0b, 0x00, 0x00, 0x00, 0x00, 0x00, 0x00, 0x09, 0xb4, 0x01, 0x00, 0x00,
  0x64, 0xf2, 0xff, 0xff, 0x08, 0x00, 0x00, 0x00, 0x0c, 0x01, 0x00, 0x00,
  0x20, 0x00, 0x00, 0x00, 0x00, 0x00, 0x00, 0x00, 0x00, 0x00, 0x00, 0x00,
  0x00, 0x00, 0x00, 0x00, 0x00, 0x00, 0x00, 0x00, 0x00, 0x00, 0x00, 0x00,
  0x00, 0x00, 0x00, 0x00, 0x00, 0x00, 0x00, 0x00, 0x00, 0x00, 0x00, 0x00,
  0x00, 0x00, 0x00, 0x00, 0x00, 0x00, 0x00, 0x00, 0x00, 0x00, 0x00, 0x00,
  0x00, 0x00, 0x00, 0x00, 0x00, 0x00, 0x00, 0x00, 0x00, 0x00, 0x00, 0x00,
  0x00, 0x00, 0x00, 0x00, 0x00, 0x00, 0x00, 0x00, 0x00, 0x00, 0x00, 0x00,
  0x00, 0x00, 0x00, 0x00, 0x00, 0x00, 0x00, 0x00, 0x00, 0x00, 0x00, 0x00,
  0x00, 0x00, 0x00, 0x00, 0x00, 0x00, 0x00, 0x00, 0x00, 0x00, 0x00, 0x00,
  0x00, 0x00, 0x00, 0x00, 0x00, 0x00, 0x00, 0x00, 0x00, 0x00, 0x00, 0x00,
  0x00, 0x00, 0x00, 0x00, 0x00, 0x00, 0x00, 0x00, 0x00, 0x00, 0x00, 0x00,
  0x00, 0x00, 0x00, 0x00, 0x00, 0x00, 0x00, 0x00, 0x00, 0x00, 0x00, 0x00,
  0x00, 0x00, 0x00, 0x00, 0x00, 0x00, 0x00, 0x00, 0x00, 0x00, 0x00, 0x00,
  0x00, 0x00, 0x00, 0x00, 0x00, 0x00, 0x00, 0x00, 0x00, 0x00, 0x00, 0x00,
  0x00, 0x00, 0x00, 0x00, 0x00, 0x00, 0x00, 0x00, 0x00, 0x00, 0x00, 0x00,
  0x00, 0x00, 0x00, 0x00, 0x00, 0x00, 0x00, 0x00, 0x00, 0x00, 0x00, 0x00,
  0x00, 0x00, 0x00, 0x00, 0x00, 0x00, 0x00, 0x00, 0x00, 0x00, 0x00, 0x00,
  0x00, 0x00, 0x00, 0x00, 0x00, 0x00, 0x00, 0x00, 0x00, 0x00, 0x00, 0x00,
  0x00, 0x00, 0x00, 0x00, 0x00, 0x00, 0x00, 0x00, 0x00, 0x00, 0x00, 0x00,
  0x00, 0x00, 0x00, 0x00, 0x00, 0x00, 0x00, 0x00, 0x00, 0x00, 0x00, 0x00,
  0x00, 0x00, 0x00, 0x00, 0x00, 0x00, 0x00, 0x00, 0x00, 0x00, 0x00, 0x00,
  0x00, 0x00, 0x00, 0x00, 0x00, 0x00, 0x00, 0x00, 0x00, 0x00, 0x00, 0x00,
  0x00, 0x00, 0x00, 0x00, 0x00, 0x00, 0x00, 0x00, 0x00, 0x00, 0x00, 0x00,
  0x20, 0x00, 0x00, 0x00, 0xba, 0xd7, 0x18, 0x3b, 0x6e, 0x0d, 0x10, 0x3b,
  0xa4, 0xd3, 0x11, 0x3b, 0x1b, 0x2d, 0x2a, 0x3b, 0xaa, 0xa1, 0x81, 0x3b,
  0xb2, 0x9f, 0x1f, 0x3b, 0x69, 0x1b, 0x7b, 0x3b, 0xad, 0xcf, 0x80, 0x3b,
  0xb4, 0x1a, 0x11, 0x3b, 0xf9, 0x79, 0x21, 0x3b, 0x68, 0x80, 0x17, 0x3b,
  0x08, 0xea, 0x1c, 0x3b, 0x85, 0xd5, 0x0f, 0x3b, 0xb1, 0x40, 0x25, 0x3b,
  0x37, 0xe8, 0x19, 0x3b, 0xce, 0xbe, 0x5e, 0x3b, 0xeb, 0xe4, 0x19, 0x3b,
  0xaf, 0xa2, 0x14, 0x3b, 0x7e, 0x9e, 0x1a, 0x3b, 0x21, 0x4b, 0x2c, 0x3b,
  0x6a, 0x6c, 0xf8, 0x3a, 0x1a, 0xfb, 0x97, 0x3b, 0x7e, 0x69, 0x19, 0x3b,
  0x31, 0x61, 0x16, 0x3b, 0x7a, 0xc9, 0x49, 0x3b, 0x3a, 0x03, 0x4c, 0x3b,
  0xfc, 0xd8, 0x82, 0x3b, 0x32, 0x68, 0x1d, 0x3b, 0xcb, 0x43, 0x86, 0x3b,
  0xe4, 0x9c, 0x20, 0x3b, 0x25, 0x00, 0x1a, 0x3b, 0x05, 0x95, 0x61, 0x3b,
  0x12, 0x00, 0x00, 0x00, 0x74, 0x66, 0x6c, 0x2e, 0x70, 0x73, 0x65, 0x75,
  0x64, 0x6f, 0x5f, 0x71, 0x63, 0x6f, 0x6e, 0x73, 0x74, 0x39, 0x00, 0x00,
  0x02, 0x00, 0x00, 0x00, 0x20, 0x00, 0x00, 0x00, 0x20, 0x00, 0x00, 0x00,
  0x52, 0xf4, 0xff, 0xff, 0x00, 0x00, 0x00, 0x01, 0x14, 0x00, 0x00, 0x00,
  0xa4, 0x01, 0x00, 0x00, 0x0a, 0x00, 0x00, 0x00, 0x00, 0x00, 0x00, 0x02,
  0xb0, 0x01, 0x00, 0x00, 0x3c, 0xf4, 0xff, 0xff, 0x08, 0x00, 0x00, 0x00,
  0x08, 0x01, 0x00, 0x00, 0x20, 0x00, 0x00, 0x00, 0x00, 0x00, 0x00, 0x00,
  0x00, 0x00, 0x00, 0x00, 0x00, 0x00, 0x00, 0x00, 0x00, 0x00, 0x00, 0x00,
  0x00, 0x00, 0x00, 0x00, 0x00, 0x00, 0x00, 0x00, 0x00, 0x00, 0x00, 0x00,
  0x00, 0x00, 0x00, 0x00, 0x00, 0x00, 0x00, 0x00, 0x00, 0x00, 0x00, 0x00,
  0x00, 0x00, 0x00, 0x00, 0x00, 0x00, 0x00, 0x00, 0x00, 0x00, 0x00, 0x00,
  0x00, 0x00, 0x00, 0x00, 0x00, 0x00, 0x00, 0x00, 0x00, 0x00, 0x00, 0x00,
  0x00, 0x00, 0x00, 0x00, 0x00, 0x00, 0x00, 0x00, 0x00, 0x00, 0x00, 0x00,
  0x00, 0x00, 0x00, 0x00, 0x00, 0x00, 0x00, 0x00, 0x00, 0x00, 0x00, 0x00,
  0x00, 0x00, 0x00, 0x00, 0x00, 0x00, 0x00, 0x00, 0x00, 0x00, 0x00, 0x00,
  0x00, 0x00, 0x00, 0x00, 0x00, 0x00, 0x00, 0x00, 0x00, 0x00, 0x00, 0x00,
  0x00, 0x00, 0x00, 0x00, 0x00, 0x00, 0x00, 0x00, 0x00, 0x00, 0x00, 0x00,
  0x00, 0x00, 0x00, 0x00, 0x00, 0x00, 0x00, 0x00, 0x00, 0x00, 0x00, 0x00,
  0x00, 0x00, 0x00, 0x00, 0x00, 0x00, 0x00, 0x00, 0x00, 0x00, 0x00, 0x00,
  0x00, 0x00, 0x00, 0x00, 0x00, 0x00, 0x00, 0x00, 0x00, 0x00, 0x00, 0x00,
  0x00, 0x00, 0x00, 0x00, 0x00, 0x00, 0x00, 0x00, 0x00, 0x00, 0x00, 0x00,
  0x00, 0x00, 0x00, 0x00, 0x00, 0x00, 0x00, 0x00, 0x00, 0x00, 0x00, 0x00,
  0x00, 0x00, 0x00, 0x00, 0x00, 0x00, 0x00, 0x00, 0x00, 0x00, 0x00, 0x00,
  0x00, 0x00, 0x00, 0x00, 0x00, 0x00, 0x00, 0x00, 0x00, 0x00, 0x00, 0x00,
  0x00, 0x00, 0x00, 0x00, 0x00, 0x00, 0x00, 0x00, 0x00, 0x00, 0x00, 0x00,
  0x00, 0x00, 0x00, 0x00, 0x00, 0x00, 0x00, 0x00, 0x00, 0x00, 0x00, 0x00,
  0x00, 0x00, 0x00, 0x00, 0x00, 0x00, 0x00, 0x00, 0x00, 0x00, 0x00, 0x00,
  0x00, 0x00, 0x00, 0x00, 0x00, 0x00, 0x00, 0x00, 0x00, 0x00, 0x00, 0x00,
  0x20, 0x00, 0x00, 0x00, 0xee, 0xdc, 0xc9, 0x36, 0xe8, 0x40, 0xbe, 0x36,
  0xcb, 0x98, 0xc0, 0x36, 0x7b, 0xc1, 0xe0, 0x36, 0x1a, 0x35, 0x2b, 0x37,
  0xaa, 0xd1, 0xd2, 0x36, 0x52, 0xd2, 0x25, 0x37, 0xc4, 0x1f, 0x2a, 0x37,
  0x8b, 0xa4, 0xbf, 0x36, 0x0e, 0x44, 0xd5, 0x36, 0x7f, 0x17, 0xc8, 0x36,
  0x86, 0x3d, 0xcf, 0x36, 0x11, 0xf7, 0xbd, 0x36, 0xd2, 0x40, 0xda, 0x36,
  0xcf, 0x44, 0xcb, 0x36, 0xb2, 0x17, 0x13, 0x37, 0x75, 0x40, 0xcb, 0x36,
  0x74, 0x4e, 0xc4, 0x36, 0x8c, 0x35, 0xcc, 0x36, 0x58, 0x8d, 0xe3, 0x36,
  0xa8, 0x0c, 0xa4, 0x36, 0x8b, 0xb9, 0x48, 0x37, 0x72, 0x9d, 0xca, 0x36,
  0x2a, 0x9c, 0xc6, 0x36, 0xa3, 0x40, 0x05, 0x37, 0xe0, 0xb8, 0x06, 0x37,
  0x46, 0xd0, 0x2c, 0x37, 0x27, 0xe4, 0xcf, 0x36, 0xa7, 0x53, 0x31, 0x37,
  0x11, 0x20, 0xd4, 0x36, 0x6a, 0x64, 0xcb, 0x36, 0x42, 0xf7, 0x14, 0x37,
  0x12, 0x00, 0x00, 0x00, 0x74, 0x66, 0x6c, 0x2e, 0x70, 0x73, 0x65, 0x75,
  0x64, 0x6f, 0x5f, 0x71, 0x63, 0x6f, 0x6e, 0x73, 0x74, 0x38, 0x00, 0x00,
  0x01, 0x00, 0x00, 0x00, 0x20, 0x00, 0x00, 0x00, 0x22, 0xf6, 0xff, 0xff,
  0x00, 0x00, 0x00, 0x01, 0x14, 0x00, 0x00, 0x00, 0xa8, 0x01, 0x00, 0x00,
  0x09, 0x00, 0x00, 0x00, 0x00, 0x00, 0x00, 0x09, 0xb4, 0x01, 0x00, 0x00,
  0x0c, 0xf6, 0xff, 0xff, 0x08, 0x00, 0x00, 0x00, 0x0c, 0x01, 0x00, 0x00,
  0x20, 0x00, 0x00, 0x00, 0x00, 0x00, 0x00, 0x00, 0x00, 0x00, 0x00, 0x00,
  0x00, 0x00, 0x00, 0x00, 0x00, 0x00, 0x00, 0x00, 0x00, 0x00, 0x00, 0x00,
  0x00, 0x00, 0x00, 0x00, 0x00, 0x00, 0x00, 0x00, 0x00, 0x00, 0x00, 0x00,
  0x00, 0x00, 0x00, 0x00, 0x00, 0x00, 0x00, 0x00, 0x00, 0x00, 0x00, 0x00,
  0x00, 0x00, 0x00, 0x00, 0x00, 0x00, 0x00, 0x00, 0x00, 0x00, 0x00, 0x00,
  0x00, 0x00, 0x00, 0x00, 0x00, 0x00, 0x00, 0x00, 0x00, 0x00, 0x00, 0x00,
  0x00, 0x00, 0x00, 0x00, 0x00, 0x00, 0x00, 0x00, 0x00, 0x00, 0x00, 0x00,
  0x00, 0x00, 0x00, 0x00, 0x00, 0x00, 0x00, 0x00, 0x00, 0x00, 0x00, 0x00,
  0x00, 0x00, 0x00, 0x00, 0x00, 0x00, 0x00, 0x00, 0x00, 0x00, 0x00, 0x00,
  0x00, 0x00, 0x00, 0x00, 0x00, 0x00, 0x00, 0x00, 0x00, 0x00, 0x00, 0x00,
  0x00, 0x00, 0x00, 0x00, 0x00, 0x00, 0x00, 0x00, 0x00, 0x00, 0x00, 0x00,
  0x00, 0x00, 0x00, 0x00, 0x00, 0x00, 0x00, 0x00, 0x00, 0x00, 0x00, 0x00,
  0x00, 0x00, 0x00, 0x00, 0x00, 0x00, 0x00, 0x00, 0x00, 0x00, 0x00, 0x00,
  0x00, 0x00, 0x00, 0x00, 0x00, 0x00, 0x00, 0x00, 0x00, 0x00, 0x00, 0x00,
  0x00, 0x00, 0x00, 0x00, 0x00, 0x00, 0x00, 0x00, 0x00, 0x00, 0x00, 0x00,
  0x00, 0x00, 0x00, 0x00, 0x00, 0x00, 0x00, 0x00, 0x00, 0x00, 0x00, 0x00,
  0x00, 0x00, 0x00, 0x00, 0x00, 0x00, 0x00, 0x00, 0x00, 0x00, 0x00, 0x00,
  0x00, 0x00, 0x00, 0x00, 0x00, 0x00, 0x00, 0x00, 0x00, 0x00, 0x00, 0x00,
  0x00, 0x00, 0x00, 0x00, 0x00, 0x00, 0x00, 0x00, 0x00, 0x00, 0x00, 0x00,
  0x00, 0x00, 0x00, 0x00, 0x00, 0x00, 0x00, 0x00, 0x00, 0x00, 0x00, 0x00,
  0x00, 0x00, 0x00, 0x00, 0x00, 0x00, 0x00, 0x00, 0x00, 0x00, 0x00, 0x00,
  0x00, 0x00, 0x00, 0x00, 0x00, 0x00, 0x00, 0x00, 0x00, 0x00, 0x00, 0x00,
  0x20, 0x00, 0x00, 0x00, 0x60, 0x75, 0x26, 0x3b, 0xf1, 0x0b, 0x15, 0x3b,
  0xb0, 0x6c, 0x18, 0x3b, 0x7f, 0x1a, 0x95, 0x3b, 0x52, 0xef, 0x1c, 0x3b,
  0xc3, 0x69, 0x1d, 0x3b, 0x5d, 0xef, 0x64, 0x3b, 0xa6, 0x73, 0x6c, 0x3b,
  0xfe, 0xc4, 0x87, 0x3b, 0xe5, 0x02, 0x19, 0x3b, 0x2a, 0x87, 0x61, 0x3b,
  0x7b, 0xe8, 0xad, 0x3b, 0xa1, 0x8e, 0x33, 0x3b, 0xe9, 0xc9, 0xb3, 0x3b,
  0x7f, 0xd1, 0x94, 0x3b, 0xd5, 0x6a, 0x2b, 0x3b, 0x83, 0x40, 0x3f, 0x3b,
  0xbf, 0xc4, 0x38, 0x3b, 0x63, 0x1a, 0x9c, 0x3b, 0xd7, 0xb8, 0x52, 0x3b,
  0x19, 0x56, 0x54, 0x3b, 0xe7, 0x65, 0x37, 0x3b, 0x7c, 0x73, 0x9f, 0x3b,
  0xb4, 0x26, 0x45, 0x3b, 0x49, 0xe8, 0x4d, 0x3b, 0x92, 0x02, 0x89, 0x3b,
  0xaa, 0xa9, 0x7f, 0x3b, 0x7e, 0x22, 0x17, 0x3b, 0x68, 0xb7, 0x18, 0x3b,
  0x13, 0xda, 0x67, 0x3b, 0x84, 0x5a, 0x0f, 0x3b, 0x46, 0xdf, 0x1c, 0x3b,
  0x12, 0x00, 0x00, 0x00, 0x74, 0x66, 0x6c, 0x2e, 0x70, 0x73, 0x65, 0x75,
  0x64, 0x6f, 0x5f, 0x71, 0x63, 0x6f, 0x6e, 0x73, 0x74, 0x37, 0x00, 0x00,
  0x02, 0x00, 0x00, 0x00, 0x20, 0x00, 0x00, 0x00, 0x20, 0x00, 0x00, 0x00,
  0xfa, 0xf7, 0xff, 0xff, 0x00, 0x00, 0x00, 0x01, 0x14, 0x00, 0x00, 0x00,
  0xa4, 0x01, 0x00, 0x00, 0x08, 0x00, 0x00, 0x00, 0x00, 0x00, 0x00, 0x02,
  0xb0, 0x01, 0x00, 0x00, 0xe4, 0xf7, 0xff, 0xff, 0x08, 0x00, 0x00, 0x00,
  0x08, 0x01, 0x00, 0x00, 0x20, 0x00, 0x00, 0x00, 0x00, 0x00, 0x00, 0x00,
  0x00, 0x00, 0x00, 0x00, 0x00, 0x00, 0x00, 0x00, 0x00, 0x00, 0x00, 0x00,
  0x00, 0x00, 0x00, 0x00, 0x00, 0x00, 0x00, 0x00, 0x00, 0x00, 0x00, 0x00,
  0x00, 0x00, 0x00, 0x00, 0x00, 0x00, 0x00, 0x00, 0x00, 0x00, 0x00, 0x00,
  0x00, 0x00, 0x00, 0x00, 0x00, 0x00, 0x00, 0x00, 0x00, 0x00, 0x00, 0x00,
  0x00, 0x00, 0x00, 0x00, 0x00, 0x00, 0x00, 0x00, 0x00, 0x00, 0x00, 0x00,
  0x00, 0x00, 0x00, 0x00, 0x00, 0x00, 0x00, 0x00, 0x00, 0x00, 0x00, 0x00,
  0x00, 0x00, 0x00, 0x00, 0x00, 0x00, 0x00, 0x00, 0x00, 0x00, 0x00, 0x00,
  0x00, 0x00, 0x00, 0x00, 0x00, 0x00, 0x00, 0x00, 0x00, 0x00, 0x00, 0x00,
  0x00, 0x00, 0x00, 0x00, 0x00, 0x00, 0x00, 0x00, 0x00, 0x00, 0x00, 0x00,
  0x00, 0x00, 0x00, 0x00, 0x00, 0x00, 0x00, 0x00, 0x00, 0x00, 0x00, 0x00,
  0x00, 0x00, 0x00, 0x00, 0x00, 0x00, 0x00, 0x00, 0x00, 0x00, 0x00, 0x00,
  0x00, 0x00, 0x00, 0x00, 0x00, 0x00, 0x00, 0x00, 0x00, 0x00, 0x00, 0x00,
  0x00, 0x00, 0x00, 0x00, 0x00, 0x00, 0x00, 0x00, 0x00, 0x00, 0x00, 0x00,
  0x00, 0x00, 0x00, 0x00, 0x00, 0x00, 0x00, 0x00, 0x00, 0x00, 0x00, 0x00,
  0x00, 0x00, 0x00, 0x00, 0x00, 0x00, 0x00, 0x00, 0x00, 0x00, 0x00, 0x00,
  0x00, 0x00, 0x00, 0x00, 0x00, 0x00, 0x00, 0x00, 0x00, 0x00, 0x00, 0x00,
  0x00, 0x00, 0x00, 0x00, 0x00, 0x00, 0x00, 0x00, 0x00, 0x00, 0x00, 0x00,
  0x00, 0x00, 0x00, 0x00, 0x00, 0x00, 0x00, 0x00, 0x00, 0x00, 0x00, 0x00,
  0x00, 0x00, 0x00, 0x00, 0x00, 0x00, 0x00, 0x00, 0x00, 0x00, 0x00, 0x00,
  0x00, 0x00, 0x00, 0x00, 0x00, 0x00, 0x00, 0x00, 0x00, 0x00, 0x00, 0x00,
  0x00, 0x00, 0x00, 0x00, 0x00, 0x00, 0x00, 0x00, 0x00, 0x00, 0x00, 0x00,
  0x20, 0x00, 0x00, 0x00, 0xfc, 0x4e, 0x16, 0x37, 0x04, 0x96, 0x06, 0x37,
  0xdd, 0xa2, 0x09, 0x37, 0x29, 0xa3, 0x86, 0x37, 0x79, 0xb5, 0x0d, 0x37,
  0x09, 0x24, 0x0e, 0x37, 0x39, 0xb9, 0x4e, 0x37, 0xd0, 0x82, 0x55, 0x37,
  0xac, 0x31, 0x75, 0x37, 0x80, 0x2a, 0x0a, 0x37, 0xa5, 0xa5, 0x4b, 0x37,
  0x10, 0x09, 0x9d, 0x37, 0xe7, 0x22, 0x22, 0x37, 0x6f, 0x58, 0xa2, 0x37,
  0x3e, 0x61, 0x86, 0x37, 0x47, 0xc9, 0x1a, 0x37, 0x51, 0xb2, 0x2c, 0x37,
  0x96, 0xd7, 0x26, 0x37, 0x33, 0xf5, 0x8c, 0x37, 0x10, 0x47, 0x3e, 0x37,
  0x3a, 0xbc, 0x3f, 0x37, 0xc8, 0x9a, 0x25, 0x37, 0x24, 0xfb, 0x8f, 0x37,
  0xfd, 0x05, 0x32, 0x37, 0x17, 0xee, 0x39, 0x37, 0x35, 0x6f, 0x77, 0x37,
  0xad, 0xdb, 0x66, 0x37, 0xb4, 0x78, 0x08, 0x37, 0x55, 0xe6, 0x09, 0x37,
  0x7d, 0x5b, 0x51, 0x37, 0xfe, 0x71, 0x01, 0x37, 0xfc, 0xa6, 0x0d, 0x37,
  0x12, 0x00, 0x00, 0x00, 0x74, 0x66, 0x6c, 0x2e, 0x70, 0x73, 0x65, 0x75,
  0x64, 0x6f, 0x5f, 0x71, 0x63, 0x6f, 0x6e, 0x73, 0x74, 0x36, 0x00, 0x00,
  0x01, 0x00, 0x00, 0x00, 0x20, 0x00, 0x00, 0x00, 0xca, 0xf9, 0xff, 0xff,
  0x00, 0x00, 0x00, 0x01, 0x14, 0x00, 0x00, 0x00, 0xa8, 0x01, 0x00, 0x00,
  0x07, 0x00, 0x00, 0x00, 0x00, 0x00, 0x00, 0x09, 0xb4, 0x01, 0x00, 0x00,
  0xb4, 0xf9, 0xff, 0xff, 0x08, 0x00, 0x00, 0x00, 0x0c, 0x01, 0x00, 0x00,
  0x20, 0x00, 0x00, 0x00, 0x00, 0x00, 0x00, 0x00, 0x00, 0x00, 0x00, 0x00,
  0x00, 0x00, 0x00, 0x00, 0x00, 0x00, 0x00, 0x00, 0x00, 0x00, 0x00, 0x00,
  0x00, 0x00, 0x00, 0x00, 0x00, 0x00, 0x00, 0x00, 0x00, 0x00, 0x00, 0x00,
  0x00, 0x00, 0x00, 0x00, 0x00, 0x00, 0x00, 0x00, 0x00, 0x00, 0x00, 0x00,
  0x00, 0x00, 0x00, 0x00, 0x00, 0x00, 0x00, 0x00, 0x00, 0x00, 0x00, 0x00,
  0x00, 0x00, 0x00, 0x00, 0x00, 0x00, 0x00, 0x00, 0x00, 0x00, 0x00, 0x00,
  0x00, 0x00, 0x00, 0x00, 0x00, 0x00, 0x00, 0x00, 0x00, 0x00, 0x00, 0x00,
  0x00, 0x00, 0x00, 0x00, 0x00, 0x00, 0x00, 0x00, 0x00, 0x00, 0x00, 0x00,
  0x00, 0x00, 0x00, 0x00, 0x00, 0x00, 0x00, 0x00, 0x00, 0x00, 0x00, 0x00,
  0x00, 0x00, 0x00, 0x00, 0x00, 0x00, 0x00, 0x00, 0x00, 0x00, 0x00, 0x00,
  0x00, 0x00, 0x00, 0x00, 0x00, 0x00, 0x00, 0x00, 0x00, 0x00, 0x00, 0x00,
